{
  "version": "1.0",
  "truncation": null,
  "padding": null,
  "added_tokens": [
    {
      "id": 0,
      "content": "[UNK]",
      "single_word": false,
      "lstrip": false,
      "rstrip": false,
      "normalized": false,
      "special": true
    },
    {
      "id": 1,
      "content": "[PAD]",
      "single_word": false,
      "lstrip": false,
      "rstrip": false,
      "normalized": false,
      "special": true
    },
    {
      "id": 2,
      "content": "[BOS]",
      "single_word": false,
      "lstrip": false,
      "rstrip": false,
      "normalized": false,
      "special": true
    },
    {
      "id": 3,
      "content": "[EOS]",
      "single_word": false,
      "lstrip": false,
      "rstrip": false,
      "normalized": false,
      "special": true
    }
  ],
  "normalizer": null,
  "pre_tokenizer": {
    "type": "Whitespace"
  },
  "post_processor": null,
  "decoder": null,
  "model": {
    "type": "WordPiece",
    "unk_token": "[UNK]",
    "continuing_subword_prefix": "##",
    "max_input_chars_per_word": 100,
    "vocab": {
      "[UNK]": 0,
      "[PAD]": 1,
      "[BOS]": 2,
      "[EOS]": 3,
      "!": 4,
      "(": 5,
      ")": 6,
      ",": 7,
      "-": 8,
      ".": 9,
      "0": 10,
      "1": 11,
      "2": 12,
      "3": 13,
      "4": 14,
      "5": 15,
      "8": 16,
      ":": 17,
      "<": 18,
      ">": 19,
      "?": 20,
      "M": 21,
      "N": 22,
      "U": 23,
      "а": 24,
      "б": 25,
      "в": 26,
      "г": 27,
      "д": 28,
      "е": 29,
      "ж": 30,
      "з": 31,
      "и": 32,
      "й": 33,
      "к": 34,
      "л": 35,
      "м": 36,
      "н": 37,
      "о": 38,
      "п": 39,
      "р": 40,
      "с": 41,
      "т": 42,
      "у": 43,
      "ф": 44,
      "х": 45,
      "ц": 46,
      "ч": 47,
      "ш": 48,
      "щ": 49,
      "ъ": 50,
      "ы": 51,
      "ь": 52,
      "э": 53,
      "ю": 54,
      "я": 55,
      "ё": 56,
      "##е": 57,
      "##д": 58,
      "##р": 59,
      "##а": 60,
      "##л": 61,
      "##ь": 62,
      "##н": 63,
      "##ы": 64,
      "##й": 65,
      "##о": 66,
      "##т": 67,
      "##ц": 68,
      "##и": 69,
      "##м": 70,
      "##к": 71,
      "##у": 72,
      "##ф": 73,
      "##я": 74,
      "##ю": 75,
      "##з": 76,
      "##в": 77,
      "##с": 78,
      "##ч": 79,
      "##г": 80,
      "##п": 81,
      "##х": 82,
      "##ж": 83,
      "##щ": 84,
      "##б": 85,
      "##ш": 86,
      "##э": 87,
      "##<": 88,
      "##ъ": 89,
      "##2": 90,
      "##,": 91,
      "##)": 92,
      "##ё": 93,
      "##4": 94,
      "##0": 95,
      "##5": 96,
      "##1": 97,
      "##.": 98,
      "##:": 99,
      "##-": 100,
      "##?": 101,
      "##8": 102,
      "##U": 103,
      "##M": 104,
      "##ен": 105,
      "##ст": 106,
      "##ов": 107,
      "##ра": 108,
      "##но": 109,
      "##ни": 110,
      "##ер": 111,
      "##ет": 112,
      "##ро": 113,
      "##ны": 114,
      "##ал": 115,
      "##ит": 116,
      "##ел": 117,
      "по": 118,
      "##ре": 119,
      "##ск": 120,
      "##ат": 121,
      "NU": 122,
      "NUM": 123,
      "##ени": 124,
      "##ом": 125,
      "##ор": 126,
      "##ан": 127,
      "##ил": 128,
      "##од": 129,
      "##ол": 130,
      "##от": 131,
      "##ри": 132,
      "##го": 133,
      "##ци": 134,
      "за": 135,
      "##он": 136,
      "##ств": 137,
      "##сс": 138,
      "##ка": 139,
      "##ся": 140,
      "ра": 141,
      "##ин": 142,
      "##ру": 143,
      "со": 144,
      "##ани": 145,
      "##ей": 146,
      "##ед": 147,
      "##ми": 148,
      "про": 149,
      "на": 150,
      "##ла": 151,
      "##об": 152,
      "##ки": 153,
      "##кт": 154,
      "пре": 155,
      "##ем": 156,
      "##ив": 157,
      "ст": 158,
      "##ой": 159,
      "##ров": 160,
      "об": 161,
      "##сси": 162,
      "##ель": 163,
      "##ения": 164,
      "##ли": 165,
      "##да": 166,
      "##сти": 167,
      "ро": 168,
      "##на": 169,
      "от": 170,
      "во": 171,
      "ре": 172,
      "##ать": 173,
      "##из": 174,
      "##ски": 175,
      "##ных": 176,
      "вы": 177,
      "при": 178,
      "##че": 179,
      "росси": 180,
      "##ент": 181,
      "##ут": 182,
      "##сп": 183,
      "##ам": 184,
      "##ает": 185,
      "##ение": 186,
      "пер": 187,
      "##то": 188,
      "##ные": 189,
      "##ую": 190,
      "##ного": 191,
      "##ав": 192,
      "##ной": 193,
      "##ков": 194,
      "ком": 195,
      "##лу": 196,
      "##ят": 197,
      "##ги": 198,
      "##ар": 199,
      "##али": 200,
      "##рав": 201,
      "##аль": 202,
      "##ить": 203,
      "не": 204,
      "##ого": 205,
      "год": 206,
      "##ак": 207,
      "под": 208,
      "##оро": 209,
      "##ют": 210,
      "##ции": 211,
      "##ло": 212,
      "##те": 213,
      "##жд": 214,
      "##ря": 215,
      "##ид": 216,
      "пред": 217,
      "##не": 218,
      "##им": 219,
      "##ест": 220,
      "##ль": 221,
      "##или": 222,
      "раз": 223,
      "##ку": 224,
      "св": 225,
      "##ле": 226,
      "##ным": 227,
      "##сть": 228,
      "кон": 229,
      "ин": 230,
      "##оры": 231,
      "##ай": 232,
      "##ко": 233,
      "##ный": 234,
      "##уд": 235,
      "##оль": 236,
      "кот": 237,
      "##сь": 238,
      "##их": 239,
      "##общ": 240,
      "##ев": 241,
      "сообщ": 242,
      "##яв": 243,
      "##яб": 244,
      "##рат": 245,
      "##ход": 246,
      "##ля": 247,
      "##итель": 248,
      "до": 249,
      "##гра": 250,
      "сп": 251,
      "комп": 252,
      "##ис": 253,
      "##ча": 254,
      "##став": 255,
      "##ран": 256,
      "##руд": 257,
      "##мо": 258,
      "##су": 259,
      "##каз": 260,
      "##ия": 261,
      "мо": 262,
      "##ности": 263,
      "воз": 264,
      "##ской": 265,
      "нов": 266,
      "##бк": 267,
      "##ания": 268,
      "##ий": 269,
      "рбк": 270,
      "##сто": 271,
      "россии": 272,
      "##мер": 273,
      "##же": 274,
      "##лед": 275,
      "##ыв": 276,
      "##па": 277,
      "##ября": 278,
      "сот": 279,
      "##ном": 280,
      "это": 281,
      "##рудни": 282,
      "из": 283,
      "##бот": 284,
      "сотрудни": 285,
      "##ность": 286,
      "которы": 287,
      "ми": 288,
      "##ие": 289,
      "##гов": 290,
      "ка": 291,
      "##ез": 292,
      "##ур": 293,
      "##ала": 294,
      "##ик": 295,
      "так": 296,
      "##ера": 297,
      "##ении": 298,
      "заяв": 299,
      "ру": 300,
      "##лю": 301,
      "года": 302,
      "##айте": 303,
      "##ых": 304,
      "##ное": 305,
      "##ек": 306,
      "##уп": 307,
      "##ании": 308,
      "##ствен": 309,
      "##ии": 310,
      "##ства": 311,
      "оп": 312,
      "##мен": 313,
      "##ских": 314,
      "##лен": 315,
      "##дер": 316,
      "##аци": 317,
      "##ах": 318,
      "##ител": 319,
      "##еч": 320,
      "##прав": 321,
      "воен": 322,
      "но": 323,
      "##ди": 324,
      "##та": 325,
      "го": 326,
      "##ало": 327,
      "##ную": 328,
      "##ок": 329,
      "##ним": 330,
      "##ая": 331,
      "##лов": 332,
      "##вер": 333,
      "виз": 334,
      "##ые": 335,
      "ос": 336,
      "##ора": 337,
      "работ": 338,
      "##рос": 339,
      "ли": 340,
      "ук": 341,
      "##ского": 342,
      "##ают": 343,
      "##ком": 344,
      "полу": 345,
      "также": 346,
      "ев": 347,
      "чит": 348,
      "##ание": 349,
      "##стан": 350,
      "##ство": 351,
      "читайте": 352,
      "од": 353,
      "##дел": 354,
      "##нов": 355,
      "##ект": 356,
      "слу": 357,
      "##орм": 358,
      "россий": 359,
      "##ще": 360,
      "##ила": 361,
      "##олж": 362,
      "##чи": 363,
      "стра": 364,
      "сам": 365,
      "##орт": 366,
      "лет": 367,
      "ма": 368,
      "пров": 369,
      "##ду": 370,
      "##иче": 371,
      "##рем": 372,
      "зап": 373,
      "##ры": 374,
      "##ня": 375,
      "##зид": 376,
      "ав": 377,
      "##ме": 378,
      "рез": 379,
      ">-": 380,
      "##га": 381,
      "##ше": 382,
      "презид": 383,
      "президент": 384,
      "##шения": 385,
      "##держ": 386,
      "укра": 387,
      "##иров": 388,
      "##ели": 389,
      "пос": 390,
      "дв": 391,
      "##рет": 392,
      "##ейств": 393,
      "##льт": 394,
      "##ый": 395,
      "##гу": 396,
      "##ная": 397,
      "##ский": 398,
      "дел": 399,
      "##ется": 400,
      "##атель": 401,
      "получ": 402,
      "прав": 403,
      "##ления": 404,
      "##зов": 405,
      "россия": 406,
      "ноября": 407,
      "ча": 408,
      "##яз": 409,
      "исп": 410,
      "те": 411,
      "##ации": 412,
      "ме": 413,
      "##ять": 414,
      "##са": 415,
      "##ане": 416,
      "##лож": 417,
      "евро": 418,
      "##ну": 419,
      "##мент": 420,
      "##ша": 421,
      "нач": 422,
      "ор": 423,
      "##ке": 424,
      "##ень": 425,
      "су": 426,
      "##це": 427,
      "##енг": 428,
      "де": 429,
      "окт": 430,
      "##ое": 431,
      "##оч": 432,
      "##ист": 433,
      "##ульт": 434,
      "компании": 435,
      "гра": 436,
      "след": 437,
      "тел": 438,
      "##ва": 439,
      "##ска": 440,
      "буд": 441,
      "##ющ": 442,
      "##ится": 443,
      "##ступ": 444,
      "##нит": 445,
      "та": 446,
      "##рен": 447,
      "##уж": 448,
      "##уб": 449,
      "##вет": 450,
      "##оло": 451,
      ").": 452,
      "объ": 453,
      "##ается": 454,
      "па": 455,
      "##жб": 456,
      "дан": 457,
      "##ти": 458,
      "##чет": 459,
      "##гла": 460,
      "##ина": 461,
      "сов": 462,
      "##ник": 463,
      "##ред": 464,
      "##руп": 465,
      "ва": 466,
      "##ские": 467,
      "действ": 468,
      "##оз": 469,
      "##пл": 470,
      "##але": 471,
      "пол": 472,
      "##оров": 473,
      "зак": 474,
      "##ковод": 475,
      "##люч": 476,
      ">.": 477,
      "долж": 478,
      "пов": 479,
      "сша": 480,
      "##раз": 481,
      "##ере": 482,
      "##ными": 483,
      "перв": 484,
      "врем": 485,
      "##цион": 486,
      "году": 487,
      "руковод": 488,
      "сб": 489,
      "##рит": 490,
      "##форм": 491,
      "##зв": 492,
      "##гут": 493,
      "##пу": 494,
      "##стве": 495,
      "то": 496,
      "##ос": 497,
      "##пас": 498,
      "которые": 499,
      "##анд": 500,
      "##иль": 501,
      "##ами": 502,
      "##кой": 503,
      "##ерв": 504,
      "##ению": 505,
      "сво": 506,
      "##мож": 507,
      "ан": 508,
      "##ыс": 509,
      "##дар": 510,
      "вла": 511,
      "гла": 512,
      "лю": 513,
      "эк": 514,
      "служб": 515,
      "суд": 516,
      "##сов": 517,
      "##ений": 518,
      "украин": 519,
      "вер": 520,
      "мест": 521,
      "##ыт": 522,
      "##отов": 523,
      "произ": 524,
      "мл": 525,
      "##вы": 526,
      "##ета": 527,
      "отм": 528,
      "разв": 529,
      "ус": 530,
      "##лек": 531,
      "вз": 532,
      "чел": 533,
      "##чит": 534,
      "##ника": 535,
      "пот": 536,
      "реш": 537,
      "пере": 538,
      "##грам": 539,
      "тра": 540,
      "уб": 541,
      "##аг": 542,
      "##ым": 543,
      "##стре": 544,
      "##ники": 545,
      "##ском": 546,
      "##ус": 547,
      "##пол": 548,
      "##реб": 549,
      "##ило": 550,
      "##оне": 551,
      "рас": 552,
      "соб": 553,
      "время": 554,
      "дру": 555,
      "##стра": 556,
      "##изне": 557,
      "выда": 558,
      "связ": 559,
      "октября": 560,
      ">:": 561,
      "##ици": 562,
      "теле": 563,
      ">:<": 564,
      "бизне": 565,
      "гов": 566,
      "тер": 567,
      "того": 568,
      "##том": 569,
      "##вод": 570,
      "##стро": 571,
      "приз": 572,
      "перед": 573,
      "который": 574,
      "челов": 575,
      "ок": 576,
      "##крат": 577,
      "##ум": 578,
      "##шен": 579,
      "##нич": 580,
      "##ана": 581,
      "согла": 582,
      "##нач": 583,
      "спе": 584,
      "ди": 585,
      "##при": 586,
      "прот": 587,
      "конт": 588,
      "говор": 589,
      "пут": 590,
      "##зд": 591,
      "##аться": 592,
      "будут": 593,
      "ген": 594,
      "горо": 595,
      "слов": 596,
      "ту": 597,
      "##чер": 598,
      "##сколь": 599,
      "представ": 600,
      "пл": 601,
      "##де": 602,
      "могут": 603,
      "заявил": 604,
      "основ": 605,
      "орг": 606,
      "(<": 607,
      "боль": 608,
      "кан": 609,
      "##ег": 610,
      "##нут": 611,
      "##сы": 612,
      "##ател": 613,
      "##она": 614,
      "обла": 615,
      "инт": 616,
      "результ": 617,
      "гражд": 618,
      "результат": 619,
      "мат": 620,
      "##ве": 621,
      "##ста": 622,
      "возмож": 623,
      "ув": 624,
      "управ": 625,
      "##кет": 626,
      "расс": 627,
      "##коно": 628,
      "##стоя": 629,
      "против": 630,
      "тыс": 631,
      "##щен": 632,
      "##ерб": 633,
      "пресс": 634,
      "##ацию": 635,
      "иск": 636,
      "сан": 637,
      "##есп": 638,
      "##чу": 639,
      "##ний": 640,
      "##арт": 641,
      "тех": 642,
      "),": 643,
      "ране": 644,
      "##аб": 645,
      "##ление": 646,
      "##исси": 647,
      "##ши": 648,
      "##ност": 649,
      "##ктив": 650,
      "ранее": 651,
      "кол": 652,
      "сказ": 653,
      "шенг": 654,
      "##мы": 655,
      "##уч": 656,
      "##вест": 657,
      "##ников": 658,
      "##ским": 659,
      "##ующ": 660,
      "##станов": 661,
      "##убли": 662,
      "шенген": 663,
      "вк": 664,
      "уча": 665,
      "##ует": 666,
      "прод": 667,
      "##ему": 668,
      "отно": 669,
      "руб": 670,
      "данным": 671,
      "млн": 672,
      "ба": 673,
      "без": 674,
      "##иг": 675,
      "##аний": 676,
      "амер": 677,
      "##ней": 678,
      "##род": 679,
      "##ром": 680,
      "##ории": 681,
      "сообщил": 682,
      "##гранич": 683,
      "встре": 684,
      "доб": 685,
      "сро": 686,
      "##ост": 687,
      "##прос": 688,
      "##ких": 689,
      "##имо": 690,
      "##икан": 691,
      "исполь": 692,
      "телеграм": 693,
      "пу": 694,
      "пс": 695,
      "ск": 696,
      "##нер": 697,
      "##опас": 698,
      "##ших": 699,
      "##олов": 700,
      "состав": 701,
      "##ороны": 702,
      "информ": 703,
      "##судар": 704,
      "##ителя": 705,
      "##ителей": 706,
      "развит": 707,
      "бел": 708,
      "огранич": 709,
      "род": 710,
      "сред": 711,
      "##дов": 712,
      "##мп": 713,
      "##ены": 714,
      "##ращ": 715,
      "##ракт": 716,
      "##ниц": 717,
      "##ите": 718,
      "##аты": 719,
      "##ением": 720,
      "сотрудников": 721,
      "страны": 722,
      "специ": 723,
      "органи": 724,
      "американ": 725,
      "псих": 726,
      "##му": 727,
      "##сков": 728,
      "##ата": 729,
      "##ций": 730,
      "##ину": 731,
      "меся": 732,
      "отмет": 733,
      "уг": 734,
      "##ика": 735,
      "##ях": 736,
      "##рас": 737,
      "##инг": 738,
      "государ": 739,
      "резерв": 740,
      "послед": 741,
      "дву": 742,
      "словам": 743,
      "месяц": 744,
      "кри": 745,
      "сдел": 746,
      "чет": 747,
      "##мест": 748,
      "##иту": 749,
      "други": 750,
      "террит": 751,
      "вид": 752,
      "дом": 753,
      "много": 754,
      "нед": 755,
      "сер": 756,
      "тур": 757,
      "чис": 758,
      "##нии": 759,
      "##нист": 760,
      "пок": 761,
      "помо": 762,
      "задерж": 763,
      "##ональ": 764,
      "##руж": 765,
      "вопрос": 766,
      "безопас": 767,
      "ар": 768,
      "ес": 769,
      "мин": 770,
      "пет": 771,
      "цент": 772,
      "##оп": 773,
      "##мот": 774,
      "##вед": 775,
      "##бат": 776,
      "направ": 777,
      "##дав": 778,
      "ответ": 779,
      "##нее": 780,
      "спорт": 781,
      ">)": 782,
      "счит": 783,
      "##ию": 784,
      "##мат": 785,
      "##за": 786,
      "##шел": 787,
      "рай": 788,
      "наход": 789,
      "которо": 790,
      "##ному": 791,
      "призн": 792,
      "круп": 793,
      "оч": 794,
      "счет": 795,
      "##зы": 796,
      "##ская": 797,
      "проект": 798,
      "конф": 799,
      "евроком": 800,
      "##нитель": 801,
      "##лекс": 802,
      "граждан": 803,
      "груп": 804,
      "фин": 805,
      "##мит": 806,
      "##вар": 807,
      "##бу": 808,
      "##енных": 809,
      "##ова": 810,
      "##ализ": 811,
      "##ция": 812,
      "##нам": 813,
      "команд": 814,
      "несколь": 815,
      "поддерж": 816,
      "##лект": 817,
      "сообщает": 818,
      "##сточ": 819,
      "европ": 820,
      "бизнес": 821,
      "уп": 822,
      "##твер": 823,
      "##шие": 824,
      "##ена": 825,
      "##роме": 826,
      "##рект": 827,
      "соот": 828,
      "сотрудника": 829,
      "еврокомисси": 830,
      "##пи": 831,
      "##жи": 832,
      "##работ": 833,
      "визы": 834,
      "эксп": 835,
      "канале": 836,
      "вс": 837,
      "венг": 838,
      "день": 839,
      "иг": 840,
      "мот": 841,
      "оф": 842,
      "указ": 843,
      "##яс": 844,
      "##шение": 845,
      "##ене": 846,
      "##стов": 847,
      "обв": 848,
      "##гиче": 849,
      "##иться": 850,
      "предлож": 851,
      "дости": 852,
      "лич": 853,
      "провер": 854,
      "украине": 855,
      "тури": 856,
      "организ": 857,
      "мар": 858,
      "##дель": 859,
      "##стру": 860,
      "##роп": 861,
      "##олет": 862,
      "##ивиз": 863,
      "стан": 864,
      "реги": 865,
      "##арь": 866,
      "подчер": 867,
      "моск": 868,
      "##езд": 869,
      "одна": 870,
      "запрет": 871,
      "##сказ": 872,
      "безопасности": 873,
      "соответ": 874,
      "вед": 875,
      "сил": 876,
      "цел": 877,
      "##ян": 878,
      "##еры": 879,
      "##рии": 880,
      "расп": 881,
      "##ивать": 882,
      "##ятель": 883,
      "##ально": 884,
      "президента": 885,
      "услов": 886,
      "сказал": 887,
      "продолж": 888,
      "двух": 889,
      "ат": 890,
      "ве": 891,
      "нало": 892,
      "энер": 893,
      "##ью": 894,
      "##готов": 895,
      "##пис": 896,
      "##бе": 897,
      "поз": 898,
      "##атив": 899,
      "##ках": 900,
      "##кие": 901,
      "кажд": 902,
      "##ители": 903,
      "россиянам": 904,
      "верт": 905,
      "##ербур": 906,
      "использов": 907,
      "петербур": 908,
      "вод": 909,
      "кроме": 910,
      "мол": 911,
      "муж": 912,
      "уров": 913,
      "##акт": 914,
      "##иф": 915,
      "##кот": 916,
      "##кну": 917,
      "##вля": 918,
      "##жа": 919,
      "##бы": 920,
      "##бо": 921,
      "##рех": 922,
      "##ился": 923,
      "ракет": 924,
      "стран": 925,
      "##лия": 926,
      "##кумент": 927,
      "##ябре": 928,
      "документ": 929,
      "##дими": 930,
      "владими": 931,
      "##аббат": 932,
      "ак": 933,
      "источ": 934,
      "ры": 935,
      "ситу": 936,
      "саббат": 937,
      "тран": 938,
      "##ека": 939,
      "##лет": 940,
      "##иру": 941,
      "##сте": 942,
      "##ерн": 943,
      "##ался": 944,
      "##скую": 945,
      "##рий": 946,
      "зада": 947,
      "##обод": 948,
      "##точ": 949,
      "##уют": 950,
      "##куп": 951,
      "##ратив": 952,
      "минист": 953,
      "потреб": 954,
      "говорится": 955,
      "области": 956,
      "саббатик": 957,
      "дет": 958,
      "дол": 959,
      "ки": 960,
      "лу": 961,
      "сем": 962,
      "том": 963,
      "##дет": 964,
      "##ад": 965,
      "##ожд": 966,
      "##сед": 967,
      "##ба": 968,
      "##бл": 969,
      "##ние": 970,
      "##нил": 971,
      "##ремен": 972,
      "##анию": 973,
      "наз": 974,
      "общ": 975,
      "##стиче": 976,
      "респ": 977,
      "решения": 978,
      "необ": 979,
      "конце": 980,
      "руководитель": 981,
      "произо": 982,
      "групп": 983,
      "мотив": 984,
      "соответств": 985,
      "лид": 986,
      "пи": 987,
      "сист": 988,
      "ссы": 989,
      "эконо": 990,
      "##ины": 991,
      "заним": 992,
      "созд": 993,
      "##лад": 994,
      "перев": 995,
      "##ались": 996,
      "свобод": 997,
      "сообщили": 998,
      "изд": 999,
      "опера": 1000,
      "##ацион": 1001,
      "работы": 1002,
      "случа": 1003,
      "част": 1004,
      "убий": 1005,
      "человек": 1006,
      "контро": 1007,
      "санк": 1008,
      "резервист": 1009,
      "крип": 1010,
      "экономи": 1011,
      "актив": 1012,
      "бо": 1013,
      "бли": 1014,
      "вто": 1015,
      "га": 1016,
      "готов": 1017,
      "пар": 1018,
      "уточ": 1019,
      "##ями": 1020,
      "##ший": 1021,
      "показ": 1022,
      "##рей": 1023,
      "прош": 1024,
      "выс": 1025,
      "выб": 1026,
      "##ятся": 1027,
      "подготов": 1028,
      "##ществ": 1029,
      "автом": 1030,
      "##особ": 1031,
      "производ": 1032,
      "внут": 1033,
      "он": 1034,
      "оц": 1035,
      "суп": 1036,
      "член": 1037,
      "##иб": 1038,
      "##иод": 1039,
      "##чь": 1040,
      "##жим": 1041,
      "##енные": 1042,
      "##ниче": 1043,
      "##редел": 1044,
      "##оли": 1045,
      "##ются": 1046,
      "компания": 1047,
      "##ледов": 1048,
      "сотрудник": 1049,
      "##шего": 1050,
      "объяв": 1051,
      "важ": 1052,
      "должны": 1053,
      "люд": 1054,
      "решение": 1055,
      "исключ": 1056,
      "других": 1057,
      "финан": 1058,
      "обвин": 1059,
      "подчеркну": 1060,
      "необход": 1061,
      "алекс": 1062,
      "ри": 1063,
      "явля": 1064,
      "##рыв": 1065,
      "##аны": 1066,
      "##йте": 1067,
      "##яж": 1068,
      "##про": 1069,
      "##бли": 1070,
      "зам": 1071,
      "состоя": 1072,
      "##лаг": 1073,
      "обесп": 1074,
      "##дает": 1075,
      "отк": 1076,
      "пример": 1077,
      "период": 1078,
      "##чая": 1079,
      "##ация": 1080,
      "##ектив": 1081,
      "заключ": 1082,
      "глава": 1083,
      "уголов": 1084,
      "многократ": 1085,
      "однако": 1086,
      "ссыл": 1087,
      "зд": 1088,
      "кв": 1089,
      "мульт": 1090,
      "пе": 1091,
      "тор": 1092,
      "установ": 1093,
      "##ано": 1094,
      "##ож": 1095,
      "##ям": 1096,
      "##зах": 1097,
      "##слу": 1098,
      "##щих": 1099,
      "##овать": 1100,
      "##ерт": 1101,
      "поб": 1102,
      "##рия": 1103,
      "##сса": 1104,
      "##обил": 1105,
      "стро": 1106,
      "отпу": 1107,
      "##ляр": 1108,
      "##говор": 1109,
      "российских": 1110,
      "запре": 1111,
      "действия": 1112,
      "больш": 1113,
      "супру": 1114,
      "ссылкой": 1115,
      "дмит": 1116,
      "зат": 1117,
      "им": 1118,
      "име": 1119,
      "кор": 1120,
      "нуж": 1121,
      "ран": 1122,
      "треб": 1123,
      "факт": 1124,
      "элект": 1125,
      "##дент": 1126,
      "##рт": 1127,
      "##ающ": 1128,
      "##ыми": 1129,
      "##уз": 1130,
      "##уна": 1131,
      "##ете": 1132,
      "##ант": 1133,
      "##анных": 1134,
      "##рив": 1135,
      "##кту": 1136,
      "сто": 1137,
      "##лич": 1138,
      "рос": 1139,
      "прин": 1140,
      "прив": 1141,
      "##альные": 1142,
      "##аются": 1143,
      "##рыт": 1144,
      "дело": 1145,
      "ваш": 1146,
      "служба": 1147,
      "человека": 1148,
      "генера": 1149,
      "города": 1150,
      "управления": 1151,
      "добав": 1152,
      "территории": 1153,
      "помощ": 1154,
      "европей": 1155,
      "налогов": 1156,
      "республи": 1157,
      "систем": 1158,
      "обеспеч": 1159,
      "бу": 1160,
      "бло": 1161,
      "бесп": 1162,
      "ост": 1163,
      "оказ": 1164,
      "форм": 1165,
      "хот": 1166,
      "##лении": 1167,
      "##иков": 1168,
      "##фф": 1169,
      "##шь": 1170,
      "##енци": 1171,
      "##раж": 1172,
      "##еть": 1173,
      "постав": 1174,
      "постра": 1175,
      "заб": 1176,
      "законо": 1177,
      "##ону": 1178,
      "##един": 1179,
      "наб": 1180,
      "стал": 1181,
      "стать": 1182,
      "##лиров": 1183,
      "режим": 1184,
      "##чев": 1185,
      "##альной": 1186,
      "##ились": 1187,
      "##ляет": 1188,
      "##ительно": 1189,
      "новак": 1190,
      "##ывает": 1191,
      "военной": 1192,
      "страте": 1193,
      "испыт": 1194,
      "полит": 1195,
      "глав": 1196,
      "перегов": 1197,
      "количе": 1198,
      "специали": 1199,
      "конфли": 1200,
      "молод": 1201,
      "трансп": 1202,
      ">,": 1203,
      "ис": 1204,
      "мак": 1205,
      "сек": 1206,
      "слож": 1207,
      "##рь": 1208,
      "##ака": 1209,
      "##ох": 1210,
      "##ма": 1211,
      "##ун": 1212,
      "##сим": 1213,
      "##сты": 1214,
      "поезд": 1215,
      "##ское": 1216,
      "##ством": 1217,
      "##ствия": 1218,
      "##сят": 1219,
      "##над": 1220,
      "отрас": 1221,
      "выпол": 1222,
      "##ального": 1223,
      "##жден": 1224,
      "инвест": 1225,
      "##ева": 1226,
      "способ": 1227,
      "сотрудники": 1228,
      "##ностью": 1229,
      "##елич": 1230,
      "межд": 1231,
      "следующ": 1232,
      "трам": 1233,
      "рассказ": 1234,
      "выдачу": 1235,
      "условия": 1236,
      "лидер": 1237,
      "мультивиз": 1238,
      "запрещен": 1239,
      "конфликт": 1240,
      "ад": 1241,
      "гол": 1242,
      "зв": 1243,
      "знач": 1244,
      "ию": 1245,
      "оа": 1246,
      "ром": 1247,
      "сод": 1248,
      "сез": 1249,
      "труд": 1250,
      "уда": 1251,
      "фон": 1252,
      "чем": 1253,
      "шт": 1254,
      "##лив": 1255,
      "##нем": 1256,
      "##ыш": 1257,
      "##юз": 1258,
      "##вор": 1259,
      "##ге": 1260,
      "##стран": 1261,
      "##ери": 1262,
      "##рой": 1263,
      "##ске": 1264,
      "##цию": 1265,
      "проф": 1266,
      "прода": 1267,
      "проход": 1268,
      "проце": 1269,
      "##скими": 1270,
      "##альных": 1271,
      "инд": 1272,
      "новака": 1273,
      "измен": 1274,
      "военных": 1275,
      "##алось": 1276,
      "провед": 1277,
      "правитель": 1278,
      "первый": 1279,
      "люб": 1280,
      "место": 1281,
      "около": 1282,
      "соглас": 1283,
      "плани": 1284,
      "интере": 1285,
      "результате": 1286,
      "увелич": 1287,
      "мужч": 1288,
      "внутрен": 1289,
      "людей": 1290,
      "##ународ": 1291,
      "международ": 1292,
      "чемпи": 1293,
      "-<": 1294,
      "ви": 1295,
      "вой": 1296,
      "вмест": 1297,
      "влия": 1298,
      "ко": 1299,
      "кру": 1300,
      "мед": 1301,
      "нат": 1302,
      "тем": 1303,
      "эта": 1304,
      "ядер": 1305,
      "##ех": 1306,
      "##тор": 1307,
      "##ики": 1308,
      "##сб": 1309,
      "##жен": 1310,
      "##рал": 1311,
      "##еру": 1312,
      "позв": 1313,
      "##илот": 1314,
      "завер": 1315,
      "пробл": 1316,
      "регу": 1317,
      "разработ": 1318,
      "инф": 1319,
      "котора": 1320,
      "##рать": 1321,
      "допол": 1322,
      "мира": 1323,
      "мино": 1324,
      "##ственно": 1325,
      "определ": 1326,
      "украины": 1327,
      "##мента": 1328,
      "отмеч": 1329,
      "трамп": 1330,
      "связи": 1331,
      "##вести": 1332,
      "##остей": 1333,
      "##ингт": 1334,
      "числе": 1335,
      "##матрив": 1336,
      "каждый": 1337,
      "произош": 1338,
      "вашингт": 1339,
      "оаэ": 1340,
      "которая": 1341,
      "ап": 1342,
      "аэ": 1343,
      "всу": 1344,
      "дл": 1345,
      "зна": 1346,
      "кра": 1347,
      "нем": 1348,
      "фи": 1349,
      "шаг": 1350,
      "##остав": 1351,
      "##ца": 1352,
      "##вд": 1353,
      "##овые": 1354,
      "##ноло": 1355,
      "##еро": 1356,
      "##роч": 1357,
      "пока": 1358,
      "##ому": 1359,
      "##оруж": 1360,
      "сох": 1361,
      "проку": 1362,
      "нас": 1363,
      "назв": 1364,
      "обы": 1365,
      "отправ": 1366,
      "подоз": 1367,
      "##леж": 1368,
      "##сур": 1369,
      "новых": 1370,
      "новостей": 1371,
      "казах": 1372,
      "заявления": 1373,
      "##щего": 1374,
      "бизнеса": 1375,
      "##строй": 1376,
      "##ума": 1377,
      "техноло": 1378,
      "##имости": 1379,
      "государствен": 1380,
      "центра": 1381,
      "районе": 1382,
      "ведом": 1383,
      "побед": 1384,
      "дмитрий": 1385,
      "процесс": 1386,
      "дополнитель": 1387,
      "миноб": 1388,
      "аг": 1389,
      "введ": 1390,
      "даль": 1391,
      "жиз": 1392,
      "ини": 1393,
      "кам": 1394,
      "мн": 1395,
      "смо": 1396,
      "фран": 1397,
      "##ещ": 1398,
      "##есси": 1399,
      "##дж": 1400,
      "##яли": 1401,
      "##сиров": 1402,
      "##жение": 1403,
      "поги": 1404,
      "поль": 1405,
      "##анием": 1406,
      "нар": 1407,
      "напри": 1408,
      "стало": 1409,
      "обяз": 1410,
      "приним": 1411,
      "коман": 1412,
      "сообщила": 1413,
      "мошен": 1414,
      "возду": 1415,
      "##орту": 1416,
      "провод": 1417,
      "##ических": 1418,
      "запу": 1419,
      "право": 1420,
      "россиян": 1421,
      "части": 1422,
      "сум": 1423,
      "свои": 1424,
      "люди": 1425,
      "собствен": 1426,
      "директ": 1427,
      "путин": 1428,
      "срок": 1429,
      "пун": 1430,
      "белор": 1431,
      "четы": 1432,
      "дома": 1433,
      "турни": 1434,
      "является": 1435,
      "песков": 1436,
      "пострадав": 1437,
      "чемпион": 1438,
      "позвол": 1439,
      "минобороны": 1440,
      "например": 1441,
      "бы": 1442,
      "км": 1443,
      "кит": 1444,
      "код": 1445,
      "крас": 1446,
      "мор": 1447,
      "пят": 1448,
      "пак": 1449,
      "рей": 1450,
      "сни": 1451,
      "фор": 1452,
      "циф": 1453,
      "эфф": 1454,
      "##датель": 1455,
      "##рел": 1456,
      "##аем": 1457,
      "##мь": 1458,
      "##кин": 1459,
      "##знач": 1460,
      "##пут": 1461,
      "##итет": 1462,
      "##елен": 1463,
      "поп": 1464,
      "поли": 1465,
      "##атели": 1466,
      "##анные": 1467,
      "зав": 1468,
      "запас": 1469,
      "##обиль": 1470,
      "##ивает": 1471,
      "##дают": 1472,
      "отс": 1473,
      "отдель": 1474,
      "вооруж": 1475,
      "ресур": 1476,
      "выступ": 1477,
      "##честве": 1478,
      "нес": 1479,
      "подход": 1480,
      "подтвер": 1481,
      "##орон": 1482,
      "##ывать": 1483,
      "##лючая": 1484,
      "##ечение": 1485,
      "военно": 1486,
      "особ": 1487,
      "##росо": 1488,
      "евросо": 1489,
      "орб": 1490,
      "буду": 1491,
      "такие": 1492,
      "совер": 1493,
      "сбор": 1494,
      "передает": 1495,
      "соглашения": 1496,
      "##прият": 1497,
      "представитель": 1498,
      "##ателей": 1499,
      "санкт": 1500,
      "включая": 1501,
      "развития": 1502,
      "отметил": 1503,
      "покол": 1504,
      "несколько": 1505,
      "пиш": 1506,
      "издание": 1507,
      "экономиче": 1508,
      "подчеркнул": 1509,
      "торгов": 1510,
      "генераль": 1511,
      "пункт": 1512,
      "дж": 1513,
      "даг": 1514,
      "зу": 1515,
      "зем": 1516,
      "игра": 1517,
      "кат": 1518,
      "кла": 1519,
      "клю": 1520,
      "ни": 1521,
      "осу": 1522,
      "пло": 1523,
      "сент": 1524,
      "трен": 1525,
      "цель": 1526,
      "эт": 1527,
      "##рд": 1528,
      "##лом": 1529,
      "##ости": 1530,
      "##ура": 1531,
      "##си": 1532,
      "##хл": 1533,
      "##шении": 1534,
      "##нин": 1535,
      "пох": 1536,
      "покуп": 1537,
      "зах": 1538,
      "защ": 1539,
      "##ствие": 1540,
      "##инов": 1541,
      "соз": 1542,
      "##миров": 1543,
      "проис": 1544,
      "##кий": 1545,
      "преступ": 1546,
      "премь": 1547,
      "обрат": 1548,
      "обсу": 1549,
      "рост": 1550,
      "выход": 1551,
      "неф": 1552,
      "предостав": 1553,
      "##него": 1554,
      "консу": 1555,
      "изб": 1556,
      "одно": 1557,
      "само": 1558,
      "ави": 1559,
      "получить": 1560,
      "начала": 1561,
      "дека": 1562,
      "должен": 1563,
      "власти": 1564,
      "переда": 1565,
      "контракт": 1566,
      "план": 1567,
      "##ателя": 1568,
      "возможность": 1569,
      "участ": 1570,
      "информации": 1571,
      "психоло": 1572,
      "виде": 1573,
      "еврокомиссии": 1574,
      "еврокомиссия": 1575,
      "офици": 1576,
      "достиг": 1577,
      "владимир": 1578,
      "лукой": 1579,
      "боев": 1580,
      "александ": 1581,
      "количество": 1582,
      "секрет": 1583,
      "отрасли": 1584,
      "трампа": 1585,
      "содер": 1586,
      "нато": 1587,
      "регуляр": 1588,
      "казахстан": 1589,
      "иници": 1590,
      "дагест": 1591,
      "зумер": 1592,
      "дро": 1593,
      "ист": 1594,
      "иност": 1595,
      "кур": 1596,
      "куп": 1597,
      "крит": 1598,
      "луч": 1599,
      "мно": 1600,
      "мвд": 1601,
      "пять": 1602,
      "уз": 1603,
      "утвер": 1604,
      "фед": 1605,
      "##ести": 1606,
      "##лся": 1607,
      "##ья": 1608,
      "##оци": 1609,
      "##яет": 1610,
      "##вращ": 1611,
      "##чин": 1612,
      "##пов": 1613,
      "##овал": 1614,
      "##раф": 1615,
      "##рах": 1616,
      "##алы": 1617,
      "пон": 1618,
      "##орь": 1619,
      "##руз": 1620,
      "национ": 1621,
      "##ким": 1622,
      "выпл": 1623,
      "принад": 1624,
      "##гия": 1625,
      "подраз": 1626,
      "подпис": 1627,
      "##ждения": 1628,
      "##ряд": 1629,
      "возра": 1630,
      "##стоятель": 1631,
      "которых": 1632,
      "##уры": 1633,
      "военные": 1634,
      "визу": 1635,
      "работу": 1636,
      "лиц": 1637,
      "маск": 1638,
      "##ировать": 1639,
      "начале": 1640,
      "своей": 1641,
      "млрд": 1642,
      "шенгенских": 1643,
      "месяцев": 1644,
      "территор": 1645,
      "сотрудникам": 1646,
      "операции": 1647,
      "финансов": 1648,
      "беспилот": 1649,
      "законодатель": 1650,
      "транспорт": 1651,
      "адми": 1652,
      "согласно": 1653,
      "воздуш": 1654,
      "пишет": 1655,
      "декаб": 1656,
      "иностран": 1657,
      "асс": 1658,
      "арен": 1659,
      "бан": 1660,
      "вол": 1661,
      "дональ": 1662,
      "ек": 1663,
      "иде": 1664,
      "мет": 1665,
      "ниг": 1666,
      "сим": 1667,
      "трет": 1668,
      "течение": 1669,
      "ха": 1670,
      "ход": 1671,
      "шах": 1672,
      "##дин": 1673,
      "##лы": 1674,
      "##гет": 1675,
      "##пер": 1676,
      "##жив": 1677,
      "##боч": 1678,
      "##етель": 1679,
      "##мии": 1680,
      "нап": 1681,
      "##рова": 1682,
      "##гии": 1683,
      "##альный": 1684,
      "неп": 1685,
      "предус": 1686,
      "компаний": 1687,
      "##чают": 1688,
      "мир": 1689,
      "##алась": 1690,
      "опе": 1691,
      "гос": 1692,
      "российской": 1693,
      "##илась": 1694,
      "##ющий": 1695,
      "закон": 1696,
      "сборов": 1697,
      "потенци": 1698,
      "##скому": 1699,
      "##илось": 1700,
      "##тому": 1701,
      "включ": 1702,
      "участв": 1703,
      "развитие": 1704,
      "задержали": 1705,
      "которого": 1706,
      "очков": 1707,
      "эксперт": 1708,
      "энергет": 1709,
      "позици": 1710,
      "министр": 1711,
      "саббатикал": 1712,
      "свободы": 1713,
      "убийстве": 1714,
      "примерно": 1715,
      "агент": 1716,
      "наркот": 1717,
      "секретарь": 1718,
      "инициатив": 1719,
      "..": 1720,
      "аре": 1721,
      "вним": 1722,
      "вене": 1723,
      "времен": 1724,
      "дал": 1725,
      "жен": 1726,
      "зан": 1727,
      "идет": 1728,
      "клу": 1729,
      "мал": 1730,
      "нет": 1731,
      "практ": 1732,
      "трех": 1733,
      "удов": 1734,
      "ян": 1735,
      "##еб": 1736,
      "##ды": 1737,
      "##лять": 1738,
      "##тан": 1739,
      "##ира": 1740,
      "##ват": 1741,
      "##веч": 1742,
      "##пе": 1743,
      "##рори": 1744,
      "поним": 1745,
      "порт": 1746,
      "##орта": 1747,
      "##олета": 1748,
      "##кам": 1749,
      "рам": 1750,
      "сочи": 1751,
      "програм": 1752,
      "##киров": 1753,
      "став": 1754,
      "приня": 1755,
      "##неш": 1756,
      "разре": 1757,
      "свой": 1758,
      "инвести": 1759,
      "новые": 1760,
      "##мерт": 1761,
      "кад": 1762,
      "госп": 1763,
      "##орах": 1764,
      "##щее": 1765,
      "самолет": 1766,
      "летний": 1767,
      "##ировали": 1768,
      "началь": 1769,
      "деятель": 1770,
      "депут": 1771,
      "таких": 1772,
      "действий": 1773,
      "службе": 1774,
      "взрыв": 1775,
      "выдачи": 1776,
      "окруж": 1777,
      "город": 1778,
      "интерн": 1779,
      "информацию": 1780,
      "средств": 1781,
      "считает": 1782,
      "команды": 1783,
      "нескольких": 1784,
      "все": 1785,
      "вертолет": 1786,
      "крипт": 1787,
      "оцен": 1788,
      "максим": 1789,
      "професси": 1790,
      "проблем": 1791,
      "смогут": 1792,
      "четыре": 1793,
      "эффектив": 1794,
      "ключев": 1795,
      "федера": 1796,
      "...": 1797,
      "бал": 1798,
      "дов": 1799,
      "дней": 1800,
      "жел": 1801,
      "исс": 1802,
      "ито": 1803,
      "имен": 1804,
      "ку": 1805,
      "мен": 1806,
      "нор": 1807,
      "нане": 1808,
      "ож": 1809,
      "очер": 1810,
      "оруж": 1811,
      "сф": 1812,
      "сре": 1813,
      "усп": 1814,
      "учет": 1815,
      "цен": 1816,
      "чер": 1817,
      "##зу": 1818,
      "##сии": 1819,
      "##сроч": 1820,
      "##чив": 1821,
      "##год": 1822,
      "##жения": 1823,
      "##енно": 1824,
      "##растру": 1825,
      "##нили": 1826,
      "##рев": 1827,
      "##ате": 1828,
      "##ками": 1829,
      "рабоч": 1830,
      "стороны": 1831,
      "образ": 1832,
      "выд": 1833,
      "нез": 1834,
      "некот": 1835,
      "##орож": 1836,
      "##ждение": 1837,
      "свое": 1838,
      "##ходит": 1839,
      "достав": 1840,
      "##рант": 1841,
      "##суэ": 1842,
      "возвращ": 1843,
      "извест": 1844,
      "##аций": 1845,
      "осв": 1846,
      "либо": 1847,
      "##нить": 1848,
      "тасс": 1849,
      "объект": 1850,
      "объяс": 1851,
      "службы": 1852,
      "матча": 1853,
      "рассматрив": 1854,
      "##ностей": 1855,
      "##имость": 1856,
      "психоп": 1857,
      "угро": 1858,
      "ответствен": 1859,
      "очень": 1860,
      "проверки": 1861,
      "энерго": 1862,
      "ближ": 1863,
      "второй": 1864,
      "требов": 1865,
      "вместе": 1866,
      "инфрастру": 1867,
      "аэроп": 1868,
      "длитель": 1869,
      "фигу": 1870,
      "сохран": 1871,
      "катег": 1872,
      "площ": 1873,
      "александр": 1874,
      "принадлеж": 1875,
      "подраздел": 1876,
      "венесуэ": 1877,
      "рамках": 1878,
      "очеред": 1879,
      ".,": 1880,
      "борту": 1881,
      "борь": 1882,
      "вп": 1883,
      "да": 1884,
      "жур": 1885,
      "мом": 1886,
      "мил": 1887,
      "мод": 1888,
      "см": 1889,
      "ска": 1890,
      "сег": 1891,
      "ут": 1892,
      "что": 1893,
      "шк": 1894,
      "шай": 1895,
      "##нали": 1896,
      "##они": 1897,
      "##цев": 1898,
      "##ику": 1899,
      "##кан": 1900,
      "##фон": 1901,
      "##юза": 1902,
      "##сен": 1903,
      "##чно": 1904,
      "##шим": 1905,
      "##шта": 1906,
      "##еров": 1907,
      "##ело": 1908,
      "поч": 1909,
      "пож": 1910,
      "позд": 1911,
      "посколь": 1912,
      "##атор": 1913,
      "##одейств": 1914,
      "##мист": 1915,
      "##обожд": 1916,
      "стол": 1917,
      "стар": 1918,
      "столи": 1919,
      "отд": 1920,
      "воин": 1921,
      "речь": 1922,
      "примен": 1923,
      "комисси": 1924,
      "##альное": 1925,
      "##орот": 1926,
      "доступ": 1927,
      "##лено": 1928,
      "военную": 1929,
      "работе": 1930,
      "##ически": 1931,
      "##ической": 1932,
      "##мещ": 1933,
      "часть": 1934,
      "##яться": 1935,
      "октябре": 1936,
      "границ": 1937,
      "##ющие": 1938,
      "паром": 1939,
      "данные": 1940,
      "сборы": 1941,
      "матери": 1942,
      "вклад": 1943,
      "участи": 1944,
      "встречи": 1945,
      "гражданам": 1946,
      "деньги": 1947,
      "семь": 1948,
      "контроль": 1949,
      "крипто": 1950,
      "планиру": 1951,
      "отмечает": 1952,
      "погибли": 1953,
      "пользов": 1954,
      "сумму": 1955,
      "красно": 1956,
      "премьер": 1957,
      "исследов": 1958,
      "норве": 1959,
      "освобожд": 1960,
      "момент": 1961,
      "поскольку": 1962,
      "ана": 1963,
      "аль": 1964,
      "вступ": 1965,
      "гру": 1966,
      "дав": 1967,
      "коло": 1968,
      "ло": 1969,
      "лит": 1970,
      "пр": 1971,
      "пря": 1972,
      "пис": 1973,
      "парт": 1974,
      "ря": 1975,
      "точ": 1976,
      "##рения": 1977,
      "##нения": 1978,
      "##йти": 1979,
      "##ув": 1980,
      "##усси": 1981,
      "##зам": 1982,
      "##вей": 1983,
      "##со": 1984,
      "##сон": 1985,
      "##чен": 1986,
      "##гом": 1987,
      "##гей": 1988,
      "##пров": 1989,
      "##бой": 1990,
      "##сту": 1991,
      "##нос": 1992,
      "##рон": 1993,
      "##итета": 1994,
      "появ": 1995,
      "##ско": 1996,
      "##анной": 1997,
      "##ству": 1998,
      "соци": 1999,
      "состо": 2000,
      "прог": 2001,
      "нару": 2002,
      "##лись": 2003,
      "отказ": 2004,
      "отчет": 2005,
      "отлич": 2006,
      "восп": 2007,
      "призв": 2008,
      "переч": 2009,
      "предвар": 2010,
      "##иму": 2011,
      "##удили": 2012,
      "сообщении": 2013,
      "##ябрь": 2014,
      "комплек": 2015,
      "возник": 2016,
      "##ывают": 2017,
      "качестве": 2018,
      "##екин": 2019,
      "опубли": 2020,
      "##ечно": 2021,
      "ноябре": 2022,
      "одного": 2023,
      "российские": 2024,
      "##няет": 2025,
      "получение": 2026,
      "правил": 2027,
      "чаще": 2028,
      "следов": 2029,
      "следует": 2030,
      "##ваем": 2031,
      "##ющих": 2032,
      "своих": 2033,
      "анд": 2034,
      "экстре": 2035,
      "усил": 2036,
      "вза": 2037,
      "##никами": 2038,
      "расши": 2039,
      "сделать": 2040,
      ">).": 2041,
      "находится": 2042,
      "венгрии": 2043,
      "станет": 2044,
      "москвы": 2045,
      "вертолета": 2046,
      "рын": 2047,
      "министер": 2048,
      "группы": 2049,
      "мотивации": 2050,
      "важно": 2051,
      "обвиня": 2052,
      "##обилиз": 2053,
      "отпуск": 2054,
      "нужно": 2055,
      "##охра": 2056,
      "фонтан": 2057,
      "интерес": 2058,
      "мошенниче": 2059,
      "правоохра": 2060,
      "цифров": 2061,
      "содерж": 2062,
      "оператив": 2063,
      "профессиональ": 2064,
      "нанес": 2065,
      "опубликов": 2066,
      "экстремист": 2067,
      "ал": 2068,
      "бе": 2069,
      "бетель": 2070,
      "вв": 2071,
      "вал": 2072,
      "един": 2073,
      "киз": 2074,
      "куб": 2075,
      "карь": 2076,
      "мобилиз": 2077,
      "ны": 2078,
      "оно": 2079,
      "оформ": 2080,
      "пла": 2081,
      "публи": 2082,
      "силь": 2083,
      "тро": 2084,
      "трав": 2085,
      "тяж": 2086,
      "##цы": 2087,
      "##ищ": 2088,
      "##кращ": 2089,
      "##ви": 2090,
      "##чат": 2091,
      "##гор": 2092,
      "##гли": 2093,
      "##груз": 2094,
      "##шей": 2095,
      "##шлен": 2096,
      "##нистра": 2097,
      "##ерен": 2098,
      "##иты": 2099,
      "полож": 2100,
      "##рее": 2101,
      "##атов": 2102,
      "##ория": 2103,
      "##онч": 2104,
      "##руч": 2105,
      "##едж": 2106,
      "проц": 2107,
      "проду": 2108,
      "награ": 2109,
      "наказ": 2110,
      "навы": 2111,
      "обна": 2112,
      "обуч": 2113,
      "##иду": 2114,
      "разб": 2115,
      "сообщения": 2116,
      "сообщается": 2117,
      "море": 2118,
      "возбу": 2119,
      "кас": 2120,
      "лишения": 2121,
      "лишь": 2122,
      "страна": 2123,
      "саммит": 2124,
      "маг": 2125,
      "авгу": 2126,
      "автор": 2127,
      "##шее": 2128,
      "две": 2129,
      "двиг": 2130,
      "объедин": 2131,
      "пасса": 2132,
      "времени": 2133,
      "своем": 2134,
      "террори": 2135,
      "представители": 2136,
      "##нуть": 2137,
      "##ерба": 2138,
      "##мышлен": 2139,
      "отношении": 2140,
      "басти": 2141,
      "встреча": 2142,
      "составляет": 2143,
      "ограничения": 2144,
      "четвер": 2145,
      "покров": 2146,
      "армии": 2147,
      "признал": 2148,
      "счету": 2149,
      "венгер": 2150,
      "маркет": 2151,
      "источники": 2152,
      "случае": 2153,
      "санкций": 2154,
      "резервисты": 2155,
      "близ": 2156,
      "высок": 2157,
      "оцени": 2158,
      "уголовное": 2159,
      "многократных": 2160,
      "республики": 2161,
      "переговоры": 2162,
      "вашингтон": 2163,
      "прокурат": 2164,
      "централь": 2165,
      "жизн": 2166,
      "кодек": 2167,
      "запасе": 2168,
      "целью": 2169,
      "изберба": 2170,
      "ассоци": 2171,
      "госду": 2172,
      "некоторы": 2173,
      "позднее": 2174,
      "грузов": 2175,
      "комплекса": 2176,
      "взаим": 2177,
      "нынеш": 2178,
      "аз": 2179,
      "бол": 2180,
      "бере": 2181,
      "въ": 2182,
      "вне": 2183,
      "дня": 2184,
      "дивиз": 2185,
      "карт": 2186,
      "ник": 2187,
      "остав": 2188,
      "орех": 2189,
      "роб": 2190,
      "сут": 2191,
      "ско": 2192,
      "тр": 2193,
      "уд": 2194,
      "хат": 2195,
      "##ец": 2196,
      "##рк": 2197,
      "##аги": 2198,
      "##лению": 2199,
      "##ман": 2200,
      "##вали": 2201,
      "##чей": 2202,
      "##пит": 2203,
      "##быв": 2204,
      "##шить": 2205,
      "##енного": 2206,
      "##алов": 2207,
      "постро": 2208,
      "##реп": 2209,
      "##регу": 2210,
      "##реваем": 2211,
      "##аточ": 2212,
      "##риров": 2213,
      "##ондент": 2214,
      "раст": 2215,
      "союз": 2216,
      "прось": 2217,
      "просто": 2218,
      "нам": 2219,
      "нагруз": 2220,
      "пребыв": 2221,
      "##ивают": 2222,
      "обороны": 2223,
      "обращ": 2224,
      "вос": 2225,
      "##ента": 2226,
      "##гий": 2227,
      "годы": 2228,
      "##ором": 2229,
      "предпри": 2230,
      "предлаг": 2231,
      "инстру": 2232,
      "сообщило": 2233,
      "договор": 2234,
      "комплекс": 2235,
      "мож": 2236,
      "##пад": 2237,
      "миров": 2238,
      "заявила": 2239,
      "##ственных": 2240,
      "##ственный": 2241,
      "##лены": 2242,
      "##верен": 2243,
      "##орами": 2244,
      "российский": 2245,
      "##щественно": 2246,
      "авто": 2247,
      "делу": 2248,
      "получил": 2249,
      "правила": 2250,
      "испол": 2251,
      "существ": 2252,
      "десят": 2253,
      "октябрь": 2254,
      "пара": 2255,
      "полно": 2256,
      "полностью": 2257,
      "должна": 2258,
      "анало": 2259,
      "главы": 2260,
      "службу": 2261,
      "судно": 2262,
      "убе": 2263,
      "связь": 2264,
      "##ициров": 2265,
      "орган": 2266,
      "рассмот": 2267,
      "искус": 2268,
      "колле": 2269,
      "относ": 2270,
      "базы": 2271,
      "отметили": 2272,
      "последний": 2273,
      "последние": 2274,
      "другие": 2275,
      "недост": 2276,
      "сергей": 2277,
      "помог": 2278,
      "силы": 2279,
      "распро": 2280,
      "##беж": 2281,
      "уровень": 2282,
      "ситуации": 2283,
      "##летвор": 2284,
      "долго": 2285,
      "занимает": 2286,
      "газ": 2287,
      "автомобил": 2288,
      "многократные": 2289,
      "здоров": 2290,
      "добавил": 2291,
      "испытания": 2292,
      "##ждено": 2293,
      "мультивизы": 2294,
      "мужчина": 2295,
      "край": 2296,
      "подозреваем": 2297,
      "белорусси": 2298,
      "попыт": 2299,
      "орбан": 2300,
      "осуществ": 2301,
      "территорию": 2302,
      "характ": 2303,
      "ходе": 2304,
      "среди": 2305,
      "журнали": 2306,
      "правоохранитель": 2307,
      "тяжел": 2308,
      "дивизи": 2309,
      "бри": 2310,
      "быв": 2311,
      "ду": 2312,
      "дев": 2313,
      "дума": 2314,
      "крем": 2315,
      "лав": 2316,
      "лег": 2317,
      "мч": 2318,
      "меро": 2319,
      "ника": 2320,
      "оши": 2321,
      "ожи": 2322,
      "овеч": 2323,
      "пен": 2324,
      "пит": 2325,
      "ред": 2326,
      "сайте": 2327,
      "там": 2328,
      "това": 2329,
      "ум": 2330,
      "уни": 2331,
      "устрой": 2332,
      "урегу": 2333,
      "фут": 2334,
      "фев": 2335,
      "шести": 2336,
      "швей": 2337,
      "эл": 2338,
      "##ешь": 2339,
      "##ню": 2340,
      "##йдет": 2341,
      "##оны": 2342,
      "##оят": 2343,
      "##ость": 2344,
      "##ио": 2345,
      "##фин": 2346,
      "##фик": 2347,
      "##чных": 2348,
      "##чной": 2349,
      "##гатель": 2350,
      "##жест": 2351,
      "##них": 2352,
      "##рошен": 2353,
      "##ита": 2354,
      "пояс": 2355,
      "##режд": 2356,
      "##омин": 2357,
      "##одно": 2358,
      "##одня": 2359,
      "##ота": 2360,
      "##риб": 2361,
      "заработ": 2362,
      "##ине": 2363,
      "##инк": 2364,
      "сопров": 2365,
      "напис": 2366,
      "##ивиду": 2367,
      "сторо": 2368,
      "отмен": 2369,
      "отдел": 2370,
      "реком": 2371,
      "вырос": 2372,
      "высказ": 2373,
      "прибы": 2374,
      "##чеб": 2375,
      "##ентов": 2376,
      "##гие": 2377,
      "##ары": 2378,
      "##альным": 2379,
      "##альную": 2380,
      "##жде": 2381,
      "разгов": 2382,
      "конц": 2383,
      "констан": 2384,
      "нового": 2385,
      "##парат": 2386,
      "мигра": 2387,
      "опыт": 2388,
      "получают": 2389,
      "российского": 2390,
      "мас": 2391,
      "##рыто": 2392,
      "делать": 2393,
      "##ательно": 2394,
      "европу": 2395,
      "тела": 2396,
      "совмест": 2397,
      "##плом": 2398,
      "##плей": 2399,
      "##может": 2400,
      "телефон": 2401,
      "спец": 2402,
      "диплом": 2403,
      "путина": 2404,
      "##здрав": 2405,
      "городе": 2406,
      "расследов": 2407,
      "##ующих": 2408,
      "встрече": 2409,
      "сроки": 2410,
      "государства": 2411,
      "число": 2412,
      "вопросы": 2413,
      "проекта": 2414,
      "предложил": 2415,
      "организаций": 2416,
      "водитель": 2417,
      "ракеты": 2418,
      "источник": 2419,
      "##ирует": 2420,
      "назнач": 2421,
      "высо": 2422,
      "##иби": 2423,
      "открыт": 2424,
      "супругов": 2425,
      "принят": 2426,
      "поездки": 2427,
      "выполн": 2428,
      "конфликта": 2429,
      "романа": 2430,
      "сезоне": 2431,
      "продаж": 2432,
      "индивиду": 2433,
      "произошло": 2434,
      "знаком": 2435,
      "назвал": 2436,
      "технологиче": 2437,
      "мнению": 2438,
      "франц": 2439,
      "обязан": 2440,
      "команда": 2441,
      "турнир": 2442,
      "пострадавших": 2443,
      "позволяет": 2444,
      "китай": 2445,
      "пакет": 2446,
      "завис": 2447,
      "евросоюз": 2448,
      "##приятия": 2449,
      "консуль": 2450,
      "психологиче": 2451,
      "иностранных": 2452,
      "именно": 2453,
      "ожид": 2454,
      "образом": 2455,
      "сегодня": 2456,
      "колонии": 2457,
      "ряд": 2458,
      "предваритель": 2459,
      "обнаруж": 2460,
      "маркетплей": 2461,
      "госдумы": 2462,
      "распростран": 2463,
      "мчс": 2464,
      "урегулиров": 2465,
      "футб": 2466,
      "февра": 2467,
      "рекомен": 2468,
      "констант": 2469,
      "ах": 2470,
      "ата": 2471,
      "бю": 2472,
      "гер": 2473,
      "глу": 2474,
      "голов": 2475,
      "лам": 2476,
      "муз": 2477,
      "мыш": 2478,
      "мобиль": 2479,
      "ном": 2480,
      "норм": 2481,
      "нхл": 2482,
      "означ": 2483,
      "рпл": 2484,
      "си": 2485,
      "сит": 2486,
      "сев": 2487,
      "сиби": 2488,
      "тан": 2489,
      "уч": 2490,
      "ура": 2491,
      "ужест": 2492,
      "худ": 2493,
      "чинов": 2494,
      "ши": 2495,
      "язы": 2496,
      "##еж": 2497,
      "##еше": 2498,
      "##арова": 2499,
      "##лени": 2500,
      "##лений": 2501,
      "##ьте": 2502,
      "##ич": 2503,
      "##кого": 2504,
      "##вать": 2505,
      "##гам": 2506,
      "##гля": 2507,
      "##ено": 2508,
      "##овой": 2509,
      "##овых": 2510,
      "##разов": 2511,
      "##ния": 2512,
      "##нице": 2513,
      "##ером": 2514,
      "##итализ": 2515,
      "##ела": 2516,
      "пор": 2517,
      "поэ": 2518,
      "##ату": 2519,
      "##оря": 2520,
      "засед": 2521,
      "##ссен": 2522,
      "ради": 2523,
      "##лай": 2524,
      "##образ": 2525,
      "стиму": 2526,
      "обс": 2527,
      "оборо": 2528,
      "##дается": 2529,
      "роста": 2530,
      "выше": 2531,
      "приговор": 2532,
      "##енты": 2533,
      "неодно": 2534,
      "предуп": 2535,
      "председ": 2536,
      "свер": 2537,
      "конечно": 2538,
      "##иха": 2539,
      "##хода": 2540,
      "допу": 2541,
      "спис": 2542,
      "компет": 2543,
      "москов": 2544,
      "новую": 2545,
      "этого": 2546,
      "сотрудниче": 2547,
      "миним": 2548,
      "##ике": 2549,
      "румы": 2550,
      "##екан": 2551,
      "осоз": 2552,
      "одной": 2553,
      "стране": 2554,
      "маш": 2555,
      "маду": 2556,
      "маши": 2557,
      "авт": 2558,
      "посел": 2559,
      "часто": 2560,
      "мессен": 2561,
      "таким": 2562,
      "объем": 2563,
      "закрыт": 2564,
      "повы": 2565,
      "##разд": 2566,
      "##ционные": 2567,
      "руководителя": 2568,
      "потер": 2569,
      "собой": 2570,
      "путеше": 2571,
      "слова": 2572,
      "граждане": 2573,
      "шенгенской": 2574,
      "отношения": 2575,
      "средства": 2576,
      "организов": 2577,
      "американский": 2578,
      "месяца": 2579,
      ">),": 2580,
      "которое": 2581,
      "счетом": 2582,
      "##вард": 2583,
      "офис": 2584,
      "организации": 2585,
      "атор": 2586,
      "атак": 2587,
      "петербург": 2588,
      "петербурге": 2589,
      "задач": 2590,
      "саббатикала": 2591,
      "соответствующ": 2592,
      "##ационный": 2593,
      "частности": 2594,
      "активов": 2595,
      "пары": 2596,
      "парла": 2597,
      "автомобиль": 2598,
      "членов": 2599,
      "финансиров": 2600,
      "состоянии": 2601,
      "уголовного": 2602,
      "большой": 2603,
      "затем": 2604,
      "имеет": 2605,
      "статье": 2606,
      "стратегиче": 2607,
      "крушения": 2608,
      "заверш": 2609,
      "насел": 2610,
      "отсут": 2611,
      "подтверд": 2612,
      "сентября": 2613,
      "захарова": 2614,
      "нефт": 2615,
      "лукойла": 2616,
      "боевых": 2617,
      "треть": 2618,
      "внимание": 2619,
      "удовлетвор": 2620,
      "кадров": 2621,
      "госпитализ": 2622,
      "деятельности": 2623,
      "менедж": 2624,
      "требования": 2625,
      "инфраструкту": 2626,
      "милли": 2627,
      "отдых": 2628,
      "андрей": 2629,
      "обвиняем": 2630,
      "экстремистской": 2631,
      "наказание": 2632,
      "августе": 2633,
      "бастион": 2634,
      "ассоциации": 2635,
      "взаимодейств": 2636,
      "скорее": 2637,
      "ошиб": 2638,
      "француз": 2639,
      "ламмерт": 2640,
      "ужесточ": 2641,
      "список": 2642,
      "мадуро": 2643,
      "госпитализировали": 2644,
      "аб": 2645,
      "ада": 2646,
      "вн": 2647,
      "губ": 2648,
      "зло": 2649,
      "кли": 2650,
      "кры": 2651,
      "кред": 2652,
      "кхл": 2653,
      "мид": 2654,
      "ней": 2655,
      "рф": 2656,
      "рел": 2657,
      "са": 2658,
      "сол": 2659,
      "серв": 2660,
      "удар": 2661,
      "учеб": 2662,
      "хок": 2663,
      "чув": 2664,
      "шой": 2665,
      "юж": 2666,
      "яп": 2667,
      "##ее": 2668,
      "##рю": 2669,
      "##аз": 2670,
      "##ади": 2671,
      "##ьи": 2672,
      "##нд": 2673,
      "##останов": 2674,
      "##ием": 2675,
      "##мени": 2676,
      "##ук": 2677,
      "##уется": 2678,
      "##форт": 2679,
      "##фициров": 2680,
      "##ящ": 2681,
      "##во": 2682,
      "##сет": 2683,
      "##сом": 2684,
      "##смен": 2685,
      "##чного": 2686,
      "##пла": 2687,
      "##бов": 2688,
      "##шли": 2689,
      "##енный": 2690,
      "##нила": 2691,
      "##рот": 2692,
      "##еля": 2693,
      "пои": 2694,
      "поряд": 2695,
      "##атом": 2696,
      "##анную": 2697,
      "##цией": 2698,
      "##цидент": 2699,
      "заказ": 2700,
      "завод": 2701,
      "##онах": 2702,
      "рак": 2703,
      "рав": 2704,
      "раск": 2705,
      "##рует": 2706,
      "проп": 2707,
      "прояв": 2708,
      "промышлен": 2709,
      "над": 2710,
      "народ": 2711,
      "##ларов": 2712,
      "##кив": 2713,
      "сте": 2714,
      "стаб": 2715,
      "реб": 2716,
      "реализ": 2717,
      "выз": 2718,
      "прис": 2719,
      "приоб": 2720,
      "приостанов": 2721,
      "##ческие": 2722,
      "россией": 2723,
      "##авлив": 2724,
      "комфорт": 2725,
      "подоб": 2726,
      "##нев": 2727,
      "размер": 2728,
      "различ": 2729,
      "инцидент": 2730,
      "##ляра": 2731,
      "##ляют": 2732,
      "спрос": 2733,
      "##част": 2734,
      "новости": 2735,
      "заявление": 2736,
      "заявителей": 2737,
      "рус": 2738,
      "##люд": 2739,
      "##ственного": 2740,
      "##лена": 2741,
      "##директ": 2742,
      "##чины": 2743,
      "самым": 2744,
      "##няя": 2745,
      "дви": 2746,
      "дела": 2747,
      "начал": 2748,
      "сумер": 2749,
      "существенно": 2750,
      "телекан": 2751,
      "данных": 2752,
      "совет": 2753,
      "современ": 2754,
      "совещ": 2755,
      "вари": 2756,
      "повест": 2757,
      "##дарт": 2758,
      "экст": 2759,
      "месте": 2760,
      "места": 2761,
      "тради": 2762,
      "призна": 2763,
      "призыв": 2764,
      "оконч": 2765,
      "соглашение": 2766,
      "геншта": 2767,
      "гендирект": 2768,
      "больниц": 2769,
      "##ателем": 2770,
      "матче": 2771,
      "возможности": 2772,
      "уволь": 2773,
      "управление": 2774,
      "техниче": 2775,
      "рубио": 2776,
      "пуст": 2777,
      "родствен": 2778,
      "##ница": 2779,
      "##инге": 2780,
      "сделал": 2781,
      "задержан": 2782,
      "арт": 2783,
      "минздрав": 2784,
      "##мотря": 2785,
      "##мотрен": 2786,
      "##давать": 2787,
      "считают": 2788,
      "находятся": 2789,
      "предложение": 2790,
      "туристов": 2791,
      "москва": 2792,
      "целе": 2793,
      "##жащих": 2794,
      "документе": 2795,
      "владимира": 2796,
      "рыно": 2797,
      "долларов": 2798,
      "киева": 2799,
      "семей": 2800,
      "тому": 2801,
      "##ождения": 2802,
      "назыв": 2803,
      "произошел": 2804,
      "перевод": 2805,
      "перевоз": 2806,
      "издания": 2807,
      "санкции": 2808,
      "уточнил": 2809,
      "прошлом": 2810,
      "необходим": 2811,
      "риски": 2812,
      "##ающих": 2813,
      "помощью": 2814,
      "системы": 2815,
      "обеспечения": 2816,
      "блог": 2817,
      "хотя": 2818,
      "набрал": 2819,
      "рассказал": 2820,
      "звон": 2821,
      "значитель": 2822,
      "июне": 2823,
      "планиров": 2824,
      "прокуро": 2825,
      "директор": 2826,
      "моря": 2827,
      "несмотря": 2828,
      "евросоюза": 2829,
      "совершен": 2830,
      "сборной": 2831,
      "поколение": 2832,
      "этим": 2833,
      "похит": 2834,
      "обсужд": 2835,
      "видео": 2836,
      "дагестане": 2837,
      "зумеры": 2838,
      "дональд": 2839,
      "шахт": 2840,
      "предусмотрен": 2841,
      "позицию": 2842,
      "арестов": 2843,
      "женщ": 2844,
      "депутат": 2845,
      "федерации": 2846,
      "известно": 2847,
      "объектов": 2848,
      "матчах": 2849,
      "ближай": 2850,
      "принадлежит": 2851,
      "почему": 2852,
      "логи": 2853,
      "##ступа": 2854,
      "кизляра": 2855,
      "кубка": 2856,
      "процед": 2857,
      "пассажи": 2858,
      "жизнь": 2859,
      "кодекса": 2860,
      "избербаш": 2861,
      "хатта": 2862,
      "##аточно": 2863,
      "предприним": 2864,
      "овечкин": 2865,
      "товаров": 2866,
      "поэтому": 2867,
      "##лайн": 2868,
      "отдыха": 2869,
      "внед": 2870,
      "сервис": 2871,
      "шойгу": 2872,
      "акт": 2873,
      "ачи": 2874,
      "би": 2875,
      "бар": 2876,
      "вд": 2877,
      "вил": 2878,
      "вход": 2879,
      "ге": 2880,
      "жив": 2881,
      "жителя": 2882,
      "зону": 2883,
      "зелен": 2884,
      "ит": 2885,
      "имп": 2886,
      "кар": 2887,
      "как": 2888,
      "лок": 2889,
      "мень": 2890,
      "меры": 2891,
      "ори": 2892,
      "опас": 2893,
      "сы": 2894,
      "сей": 2895,
      "тре": 2896,
      "тест": 2897,
      "ува": 2898,
      "фоне": 2899,
      "фун": 2900,
      "шары": 2901,
      "эмо": 2902,
      "эмп": 2903,
      "##ече": 2904,
      "##дут": 2905,
      "##ьез": 2906,
      "##нр": 2907,
      "##нение": 2908,
      "##нания": 2909,
      "##ыду": 2910,
      "##оу": 2911,
      "##оном": 2912,
      "##тсб": 2913,
      "##иции": 2914,
      "##крет": 2915,
      "##уне": 2916,
      "##фика": 2917,
      "##яется": 2918,
      "##вол": 2919,
      "##чные": 2920,
      "##чный": 2921,
      "##гда": 2922,
      "##пора": 2923,
      "##хани": 2924,
      "##хождения": 2925,
      "##жать": 2926,
      "##ждает": 2927,
      "##без": 2928,
      "##ъяв": 2929,
      "##енной": 2930,
      "##енности": 2931,
      "##енос": 2932,
      "##стка": 2933,
      "##овали": 2934,
      "##нод": 2935,
      "##ните": 2936,
      "##ником": 2937,
      "поро": 2938,
      "поле": 2939,
      "поступ": 2940,
      "постоя": 2941,
      "пораж": 2942,
      "##ресс": 2943,
      "##орий": 2944,
      "##анс": 2945,
      "##илов": 2946,
      "##отрей": 2947,
      "зако": 2948,
      "закуп": 2949,
      "##ствии": 2950,
      "##кая": 2951,
      "##кации": 2952,
      "сократ": 2953,
      "##едом": 2954,
      "настоя": 2955,
      "наза": 2956,
      "##кими": 2957,
      "##кистан": 2958,
      "прев": 2959,
      "преж": 2960,
      "прежде": 2961,
      "##емон": 2962,
      "обстоятель": 2963,
      "##ениях": 2964,
      "восто": 2965,
      "рек": 2966,
      "реест": 2967,
      "##изации": 2968,
      "выраз": 2969,
      "приб": 2970,
      "причин": 2971,
      "##чез": 2972,
      "##спектив": 2973,
      "перест": 2974,
      "перспектив": 2975,
      "##ующего": 2976,
      "##ковой": 2977,
      "комитет": 2978,
      "комитета": 2979,
      "##альными": 2980,
      "##акон": 2981,
      "подчин": 2982,
      "##ороз": 2983,
      "##локиров": 2984,
      "предыду": 2985,
      "конкрет": 2986,
      "сообщение": 2987,
      "##раторов": 2988,
      "##лял": 2989,
      "дост": 2990,
      "справ": 2991,
      "возб": 2992,
      "возгла": 2993,
      "новой": 2994,
      "заявили": 2995,
      "##ленных": 2996,
      "работа": 2997,
      "работает": 2998,
      "работников": 2999,
      "##станавлив": 3000,
      "одоб": 3001,
      "российская": 3002,
      "страх": 3003,
      "самых": 3004,
      "##ические": 3005,
      "запрос": 3006,
      "##ировал": 3007,
      "##ировки": 3008,
      "пособ": 3009,
      "получать": 3010,
      "получили": 3011,
      "орга": 3012,
      "следствия": 3013,
      "следствие": 3014,
      "совета": 3015,
      "действие": 3016,
      "повлия": 3017,
      "первого": 3018,
      "сборах": 3019,
      "украинского": 3020,
      "взгля": 3021,
      "##никам": 3022,
      "решении": 3023,
      "перес": 3024,
      "передав": 3025,
      "##кратно": 3026,
      "пути": 3027,
      "туре": 3028,
      "плат": 3029,
      "увид": 3030,
      "уведом": 3031,
      "управлен": 3032,
      "рассчит": 3033,
      "относят": 3034,
      "встречу": 3035,
      "родителей": 3036,
      "резерве": 3037,
      "недел": 3038,
      "##нистратив": 3039,
      "направил": 3040,
      "спортсмен": 3041,
      "район": 3042,
      "крупней": 3043,
      "конферен": 3044,
      "всей": 3045,
      "венгрия": 3046,
      "обви": 3047,
      "региона": 3048,
      "региональ": 3049,
      "использовать": 3050,
      "петербурга": 3051,
      "уровне": 3052,
      "документов": 3053,
      "задачи": 3054,
      "потребности": 3055,
      "детей": 3056,
      "второ": 3057,
      "гарант": 3058,
      "онлайн": 3059,
      "необходимо": 3060,
      "необходимости": 3061,
      "алексей": 3062,
      "риа": 3063,
      "кварт": 3064,
      "##служб": 3065,
      "электро": 3066,
      "стоит": 3067,
      "стоимость": 3068,
      "привлек": 3069,
      "блокиров": 3070,
      "##лировать": 3071,
      "режима": 3072,
      "стратегия": 3073,
      "специалисты": 3074,
      "исчез": 3075,
      "поездок": 3076,
      "сезон": 3077,
      "проходить": 3078,
      "правительства": 3079,
      "мужчину": 3080,
      "вице": 3081,
      "медици": 3082,
      "апрел": 3083,
      "государственной": 3084,
      "дальней": 3085,
      "жизни": 3086,
      "камчат": 3087,
      "белорус": 3088,
      "чемпионата": 3089,
      "рейс": 3090,
      "формиров": 3091,
      "полиции": 3092,
      "орбана": 3093,
      "торговли": 3094,
      "пунктов": 3095,
      "ними": 3096,
      "этих": 3097,
      "однократ": 3098,
      "самостоятель": 3099,
      "лукойл": 3100,
      "узбе": 3101,
      "выплаты": 3102,
      "законодательства": 3103,
      "административ": 3104,
      "воздушное": 3105,
      "декабря": 3106,
      "арендов": 3107,
      "эксперты": 3108,
      "клуба": 3109,
      "инвестиций": 3110,
      "начальник": 3111,
      "криптотрей": 3112,
      "ключевых": 3113,
      "довер": 3114,
      "оружия": 3115,
      "незакон": 3116,
      "возвращения": 3117,
      "площад": 3118,
      "очередь": 3119,
      "освобождение": 3120,
      "альян": 3121,
      "воспри": 3122,
      "расшир": 3123,
      "магнит": 3124,
      "оценив": 3125,
      "робот": 3126,
      "построить": 3127,
      "инструмент": 3128,
      "аналоги": 3129,
      "относительно": 3130,
      "долгосроч": 3131,
      "здоровья": 3132,
      "белоруссии": 3133,
      "питтсб": 3134,
      "элем": 3135,
      "написал": 3136,
      "спецслужб": 3137,
      "ожидания": 3138,
      "мышление": 3139,
      "означает": 3140,
      "ситил": 3141,
      "худож": 3142,
      "неоднократно": 3143,
      "поселка": 3144,
      "губерн": 3145,
      "солне": 3146,
      "стабиль": 3147,
      "эмпат": 3148,
      "постоян": 3149,
      "питтсбур": 3150,
      "ам": 3151,
      "акту": 3152,
      "бот": 3153,
      "бон": 3154,
      "вел": 3155,
      "голо": 3156,
      "еди": 3157,
      "жал": 3158,
      "зол": 3159,
      "ино": 3160,
      "кни": 3161,
      "лат": 3162,
      "май": 3163,
      "ох": 3164,
      "оли": 3165,
      "празд": 3166,
      "се": 3167,
      "сми": 3168,
      "срав": 3169,
      "смен": 3170,
      "сиг": 3171,
      "сад": 3172,
      "ти": 3173,
      "тон": 3174,
      "твор": 3175,
      "улу": 3176,
      "уран": 3177,
      "устанавлив": 3178,
      "фсб": 3179,
      "хоро": 3180,
      "цит": 3181,
      "ша": 3182,
      "эп": 3183,
      "этому": 3184,
      "##еш": 3185,
      "##есед": 3186,
      "##дера": 3187,
      "##рпл": 3188,
      "##лением": 3189,
      "##нему": 3190,
      "##йт": 3191,
      "##тен": 3192,
      "##ими": 3193,
      "##игра": 3194,
      "##мей": 3195,
      "##кина": 3196,
      "##фа": 3197,
      "##ясь": 3198,
      "##сли": 3199,
      "##гатив": 3200,
      "##пп": 3201,
      "##ху": 3202,
      "##хват": 3203,
      "##ждают": 3204,
      "##щей": 3205,
      "##щий": 3206,
      "##шт": 3207,
      "##шению": 3208,
      "##енное": 3209,
      "##енная": 3210,
      "##стер": 3211,
      "##ового": 3212,
      "##ование": 3213,
      "##раб": 3214,
      "##раст": 3215,
      "##нию": 3216,
      "##еты": 3217,
      "поми": 3218,
      "помещ": 3219,
      "подавать": 3220,
      "##ормиров": 3221,
      "##оду": 3222,
      "##гого": 3223,
      "зару": 3224,
      "замест": 3225,
      "запад": 3226,
      "зарпл": 3227,
      "##сяти": 3228,
      "##ингов": 3229,
      "##анией": 3230,
      "##еда": 3231,
      "прос": 3232,
      "проком": 3233,
      "прожив": 3234,
      "наиб": 3235,
      "накан": 3236,
      "прекращ": 3237,
      "##ива": 3238,
      "стрем": 3239,
      "обнов": 3240,
      "обслу": 3241,
      "##ликов": 3242,
      "розы": 3243,
      "восточ": 3244,
      "выстра": 3245,
      "приказ": 3246,
      "привод": 3247,
      "##чек": 3248,
      "первер": 3249,
      "перенос": 3250,
      "##тое": 3251,
      "неиз": 3252,
      "негатив": 3253,
      "годам": 3254,
      "##лось": 3255,
      "предп": 3256,
      "предъяв": 3257,
      "##лья": 3258,
      "разру": 3259,
      "##козам": 3260,
      "##ляции": 3261,
      "##ительной": 3262,
      "мощ": 3263,
      "министра": 3264,
      "капит": 3265,
      "заявителя": 3266,
      "опрошен": 3267,
      "работод": 3268,
      "##росили": 3269,
      "одним": 3270,
      "одну": 3271,
      "российским": 3272,
      "российскими": 3273,
      "самые": 3274,
      "летом": 3275,
      "мага": 3276,
      "провели": 3277,
      "##ическим": 3278,
      "делает": 3279,
      "получения": 3280,
      "меж": 3281,
      "##сад": 3282,
      "начать": 3283,
      "десяти": 3284,
      "табли": 3285,
      "пад": 3286,
      "закры": 3287,
      "повыс": 3288,
      "первом": 3289,
      "##ционного": 3290,
      "руководител": 3291,
      "руководителей": 3292,
      "руководители": 3293,
      "тока": 3294,
      "##ервью": 3295,
      "анны": 3296,
      "украинских": 3297,
      "вероят": 3298,
      "развивать": 3299,
      "усили": 3300,
      "переход": 3301,
      "убили": 3302,
      "собесед": 3303,
      "##умыш": 3304,
      "диало": 3305,
      "канал": 3306,
      "интервью": 3307,
      "граждани": 3308,
      "использ": 3309,
      "использу": 3310,
      "скоро": 3311,
      "составе": 3312,
      "информацион": 3313,
      "американской": 3314,
      "последнее": 3315,
      "серьез": 3316,
      "задержаны": 3317,
      "минут": 3318,
      "##шелек": 3319,
      "крупных": 3320,
      "поддержки": 3321,
      "бизнесмен": 3322,
      "сотрудниками": 3323,
      "проверку": 3324,
      "туристиче": 3325,
      "туристы": 3326,
      "##дельца": 3327,
      "стандарт": 3328,
      "москве": 3329,
      "силу": 3330,
      "целом": 3331,
      "веще": 3332,
      "уровня": 3333,
      "акцион": 3334,
      "рыб": 3335,
      "ситуацию": 3336,
      "ситуация": 3337,
      "пись": 3338,
      "операций": 3339,
      "случаев": 3340,
      "случаях": 3341,
      "убийства": 3342,
      "контроля": 3343,
      "резервистов": 3344,
      "готовы": 3345,
      "прошл": 3346,
      "выбор": 3347,
      "##яжении": 3348,
      "##проект": 3349,
      "строитель": 3350,
      "большин": 3351,
      "корре": 3352,
      "нужны": 3353,
      "ранения": 3354,
      "факторы": 3355,
      "росликов": 3356,
      "оказался": 3357,
      "законопроект": 3358,
      "специалистов": 3359,
      "исраф": 3360,
      "инвесторов": 3361,
      "следующих": 3362,
      "рассказали": 3363,
      "рассказала": 3364,
      "лидером": 3365,
      "роман": 3366,
      "удары": 3367,
      "изменения": 3368,
      "увеличить": 3369,
      "войны": 3370,
      "вместо": 3371,
      "ядерного": 3372,
      "ведомства": 3373,
      "запуск": 3374,
      "директора": 3375,
      "китая": 3376,
      "пяти": 3377,
      "вооруженных": 3378,
      "ресурсов": 3379,
      "особенно": 3380,
      "поколения": 3381,
      "генерального": 3382,
      "генеральный": 3383,
      "класс": 3384,
      "защиты": 3385,
      "передачу": 3386,
      "официально": 3387,
      "официальный": 3388,
      "казахстана": 3389,
      "купян": 3390,
      "##овалют": 3391,
      "понять": 3392,
      "национальной": 3393,
      "выплат": 3394,
      "напря": 3395,
      "наркотиков": 3396,
      "далекин": 3397,
      "занят": 3398,
      "январ": 3399,
      "разреш": 3400,
      "криптовалют": 3401,
      "черном": 3402,
      "рабочих": 3403,
      "доставили": 3404,
      "угрозы": 3405,
      "аэропорт": 3406,
      "длительный": 3407,
      "категории": 3408,
      "площади": 3409,
      "подразделения": 3410,
      "венесуэлы": 3411,
      "школ": 3412,
      "шайбу": 3413,
      "комиссии": 3414,
      "криптоко": 3415,
      "прям": 3416,
      "партнер": 3417,
      "перечень": 3418,
      "следователи": 3419,
      "рынке": 3420,
      "фонтанка": 3421,
      "алкозам": 3422,
      "продукт": 3423,
      "возбуждено": 3424,
      "террористиче": 3425,
      "прокуратура": 3426,
      "некоторые": 3427,
      "азии": 3428,
      "берегов": 3429,
      "ореха": 3430,
      "просьбой": 3431,
      "крайне": 3432,
      "характер": 3433,
      "швейц": 3434,
      "##нюю": 3435,
      "дипломат": 3436,
      "обязанности": 3437,
      "бюдж": 3438,
      "урана": 3439,
      "компетен": 3440,
      "осозна": 3441,
      "машины": 3442,
      "миллиар": 3443,
      "злоумыш": 3444,
      "релиз": 3445,
      "ребен": 3446,
      "внедр": 3447,
      "функ": 3448,
      "органы": 3449,
      "относятся": 3450,
      "неделю": 3451,
      "медицин": 3452,
      "велик": 3453,
      "улуч": 3454,
      "зарубеж": 3455,
      "прокоммент": 3456,
      "накануне": 3457,
      "обслужив": 3458,
      "магаз": 3459,
      "таблице": 3460,
      "злоумышлен": 3461,
      "ано": 3462,
      "альт": 3463,
      "бер": 3464,
      "бла": 3465,
      "бель": 3466,
      "бума": 3467,
      "вра": 3468,
      "ги": 3469,
      "гу": 3470,
      "гри": 3471,
      "гиб": 3472,
      "дает": 3473,
      "дуб": 3474,
      "днем": 3475,
      "есть": 3476,
      "еже": 3477,
      "жителей": 3478,
      "жерт": 3479,
      "зрения": 3480,
      "ил": 3481,
      "кэ": 3482,
      "кре": 3483,
      "коро": 3484,
      "кора": 3485,
      "кос": 3486,
      "ката": 3487,
      "мэ": 3488,
      "мер": 3489,
      "мск": 3490,
      "нел": 3491,
      "них": 3492,
      "оник": 3493,
      "пыт": 3494,
      "пху": 3495,
      "сен": 3496,
      "смер": 3497,
      "сая": 3498,
      "сами": 3499,
      "смерт": 3500,
      "сможет": 3501,
      "ты": 3502,
      "тов": 3503,
      "тай": 3504,
      "унич": 3505,
      "уверен": 3506,
      "фра": 3507,
      "физ": 3508,
      "хоз": 3509,
      "цик": 3510,
      "цели": 3511,
      "чьи": 3512,
      "шест": 3513,
      "юри": 3514,
      "##дется": 3515,
      "##ас": 3516,
      "##лят": 3517,
      "##ьше": 3518,
      "##нал": 3519,
      "##нат": 3520,
      "##ыск": 3521,
      "##огра": 3522,
      "##ту": 3523,
      "##цов": 3524,
      "##цент": 3525,
      "##цкого": 3526,
      "##ино": 3527,
      "##мом": 3528,
      "##кции": 3529,
      "##фер": 3530,
      "##яют": 3531,
      "##ящен": 3532,
      "##ющего": 3533,
      "##зис": 3534,
      "##змы": 3535,
      "##се": 3536,
      "##сф": 3537,
      "##щит": 3538,
      "##щем": 3539,
      "##шки": 3540,
      "##шая": 3541,
      "##шком": 3542,
      "##шений": 3543,
      "##енным": 3544,
      "##стит": 3545,
      "##рабат": 3546,
      "##нина": 3547,
      "##нику": 3548,
      "##ерий": 3549,
      "##роз": 3550,
      "##роб": 3551,
      "##еллект": 3552,
      "поля": 3553,
      "посте": 3554,
      "##скор": 3555,
      "##анным": 3556,
      "##анный": 3557,
      "##гон": 3558,
      "##циони": 3559,
      "зад": 3560,
      "##ствовать": 3561,
      "##карт": 3562,
      "##рут": 3563,
      "##едлив": 3564,
      "##миз": 3565,
      "нами": 3566,
      "напа": 3567,
      "##лав": 3568,
      "##лачив": 3569,
      "##кипа": 3570,
      "##ивших": 3571,
      "##ившие": 3572,
      "стат": 3573,
      "стали": 3574,
      "студ": 3575,
      "##ровать": 3576,
      "обмен": 3577,
      "обще": 3578,
      "##дая": 3579,
      "##наб": 3580,
      "отече": 3581,
      "вось": 3582,
      "револ": 3583,
      "##изн": 3584,
      "##изод": 3585,
      "выдел": 3586,
      "выну": 3587,
      "вывод": 3588,
      "вышел": 3589,
      "выигра": 3590,
      "привед": 3591,
      "##ческих": 3592,
      "россию": 3593,
      "##спект": 3594,
      "##спондент": 3595,
      "персон": 3596,
      "##авис": 3597,
      "коммента": 3598,
      "##аря": 3599,
      "неу": 3600,
      "##тек": 3601,
      "разря": 3602,
      "развер": 3603,
      "##кус": 3604,
      "свет": 3605,
      "свид": 3606,
      "##лев": 3607,
      "конку": 3608,
      "констру": 3609,
      "##кость": 3610,
      "##ходы": 3611,
      "досроч": 3612,
      "спи": 3613,
      "спут": 3614,
      "компанией": 3615,
      "##ывается": 3616,
      "изуч": 3617,
      "измени": 3618,
      "каче": 3619,
      "такое": 3620,
      "##ерами": 3621,
      "военным": 3622,
      "военный": 3623,
      "военком": 3624,
      "##тации": 3625,
      "госс": 3626,
      "осень": 3627,
      "лиги": 3628,
      "линии": 3629,
      "летнего": 3630,
      "провел": 3631,
      "##ический": 3632,
      "##шествия": 3633,
      "президентом": 3634,
      "##держив": 3635,
      "посет": 3636,
      "посад": 3637,
      "двум": 3638,
      "правило": 3639,
      "россияне": 3640,
      "россиянин": 3641,
      "суда": 3642,
      "##очет": 3643,
      "##олож": 3644,
      "должность": 3645,
      "первой": 3646,
      "первые": 3647,
      "первое": 3648,
      "руководством": 3649,
      "##формы": 3650,
      "своим": 3651,
      "ант": 3652,
      "анализ": 3653,
      "собра": 3654,
      "событ": 3655,
      "связанные": 3656,
      "передал": 3657,
      "диск": 3658,
      "туроп": 3659,
      "больших": 3660,
      "област": 3661,
      "интеллект": 3662,
      "противо": 3663,
      "сказала": 3664,
      "шенгенского": 3665,
      "шенгенские": 3666,
      "сроком": 3667,
      "скла": 3668,
      "ограничений": 3669,
      "##итесь": 3670,
      "специальных": 3671,
      "американского": 3672,
      "государств": 3673,
      "кризис": 3674,
      "недо": 3675,
      "турции": 3676,
      "вопросам": 3677,
      "центре": 3678,
      "направления": 3679,
      "котором": 3680,
      "крупной": 3681,
      "проекты": 3682,
      "##варти": 3683,
      "команде": 3684,
      "поддерживать": 3685,
      "европе": 3686,
      "упал": 3687,
      "упало": 3688,
      "игро": 3689,
      "игры": 3690,
      "личность": 3691,
      "позиции": 3692,
      "мужчины": 3693,
      "##ифика": 3694,
      "акции": 3695,
      "ситуаци": 3696,
      "задачу": 3697,
      "киев": 3698,
      "общей": 3699,
      "соответствии": 3700,
      "создания": 3701,
      "убийство": 3702,
      "уточнили": 3703,
      "подготовки": 3704,
      "подготовку": 3705,
      "объявил": 3706,
      "объявила": 3707,
      "заключил": 3708,
      "здания": 3709,
      "строить": 3710,
      "отпуска": 3711,
      "имя": 3712,
      "иметь": 3713,
      "коррект": 3714,
      "раньше": 3715,
      "принци": 3716,
      "помощь": 3717,
      "помощи": 3718,
      "бури": 3719,
      "поставки": 3720,
      "переговоров": 3721,
      "молодые": 3722,
      "инвесторами": 3723,
      "следующие": 3724,
      "условиях": 3725,
      "лидеров": 3726,
      "штраф": 3727,
      "продажи": 3728,
      "правительство": 3729,
      "влияют": 3730,
      "##ехать": 3731,
      "проблему": 3732,
      "##раться": 3733,
      "произошед": 3734,
      "сохра": 3735,
      "обыгра": 3736,
      "обычно": 3737,
      "подозр": 3738,
      "технологий": 3739,
      "ведомство": 3740,
      "дополнительные": 3741,
      "мнение": 3742,
      "погиб": 3743,
      "проводит": 3744,
      "запуст": 3745,
      "домаш": 3746,
      "чемпионат": 3747,
      "сниж": 3748,
      "военнослу": 3749,
      "играх": 3750,
      "тренер": 3751,
      "создает": 3752,
      "происшествия": 3753,
      "нефти": 3754,
      "консульт": 3755,
      "участники": 3756,
      "регулярно": 3757,
      "дагестана": 3758,
      "истории": 3759,
      "купить": 3760,
      "многие": 3761,
      "подписал": 3762,
      "возраст": 3763,
      "беспилотников": 3764,
      "декабре": 3765,
      "банков": 3766,
      "дональда": 3767,
      "непос": 3768,
      "агентства": 3769,
      "инициативы": 3770,
      "удоволь": 3771,
      "программы": 3772,
      "приняла": 3773,
      "разрешения": 3774,
      "интернет": 3775,
      "интернете": 3776,
      "всего": 3777,
      "проблема": 3778,
      "проблемы": 3779,
      "ключевые": 3780,
      "итогам": 3781,
      "кучер": 3782,
      "ответственности": 3783,
      "ответственность": 3784,
      "фигурант": 3785,
      "борьбы": 3786,
      "смыс": 3787,
      "шайбы": 3788,
      "столк": 3789,
      "воинской": 3790,
      "границы": 3791,
      "планируют": 3792,
      "краснодар": 3793,
      "норвеж": 3794,
      "точки": 3795,
      "##сообраз": 3796,
      "состоится": 3797,
      "прогно": 3798,
      "оперативно": 3799,
      "бетельного": 3800,
      "единствен": 3801,
      "карьер": 3802,
      "трое": 3803,
      "саммита": 3804,
      "##нуться": 3805,
      "четверо": 3806,
      "нынешнем": 3807,
      "суток": 3808,
      "восстанов": 3809,
      "бывший": 3810,
      "девять": 3811,
      "лавров": 3812,
      "мероприятия": 3813,
      "пояснил": 3814,
      "сопровожд": 3815,
      "прибыль": 3816,
      "разговора": 3817,
      "телефонного": 3818,
      "технологического": 3819,
      "турнирной": 3820,
      "футбол": 3821,
      "константин": 3822,
      "ахмат": 3823,
      "минимум": 3824,
      "румынии": 3825,
      "парламента": 3826,
      "адап": 3827,
      "кредит": 3828,
      "япон": 3829,
      "заказов": 3830,
      "ракета": 3831,
      "приобрет": 3832,
      "размере": 3833,
      "совещание": 3834,
      "вариант": 3835,
      "традицион": 3836,
      "генштаба": 3837,
      "родственники": 3838,
      "целесообраз": 3839,
      "виллу": 3840,
      "итали": 3841,
      "ориент": 3842,
      "эмоцион": 3843,
      "назад": 3844,
      "районный": 3845,
      "конференции": 3846,
      "художника": 3847,
      "жалоб": 3848,
      "олимп": 3849,
      "эпизод": 3850,
      "помимо": 3851,
      "восточной": 3852,
      "опрошенных": 3853,
      "токаев": 3854,
      "собеседник": 3855,
      "корреспондент": 3856,
      "благо": 3857,
      "оникс": 3858,
      "пхукет": 3859,
      "смерти": 3860,
      "саяно": 3861,
      "уничто": 3862,
      "хозя": 3863,
      "револю": 3864,
      "бала": 3865,
      "быт": 3866,
      "брю": 3867,
      "бпла": 3868,
      "вст": 3869,
      "вет": 3870,
      "вей": 3871,
      "входит": 3872,
      "гал": 3873,
      "горя": 3874,
      "дер": 3875,
      "доро": 3876,
      "дис": 3877,
      "дале": 3878,
      "джа": 3879,
      "ер": 3880,
      "жест": 3881,
      "зр": 3882,
      "зен": 3883,
      "зоне": 3884,
      "зоны": 3885,
      "ии": 3886,
      "их": 3887,
      "крат": 3888,
      "ле": 3889,
      "лей": 3890,
      "лай": 3891,
      "мя": 3892,
      "мус": 3893,
      "мене": 3894,
      "миха": 3895,
      "нал": 3896,
      "ог": 3897,
      "оон": 3898,
      "пав": 3899,
      "рст": 3900,
      "рют": 3901,
      "сц": 3902,
      "сет": 3903,
      "сраз": 3904,
      "тю": 3905,
      "тера": 3906,
      "ток": 3907,
      "уф": 3908,
      "уст": 3909,
      "умер": 3910,
      "устран": 3911,
      "уйти": 3912,
      "хер": 3913,
      "хам": 3914,
      "хим": 3915,
      "хран": 3916,
      "хват": 3917,
      "цска": 3918,
      "чек": 3919,
      "экипа": 3920,
      "##ея": 3921,
      "##ераторов": 3922,
      "##ап": 3923,
      "##актив": 3924,
      "##лат": 3925,
      "##ьют": 3926,
      "##нении": 3927,
      "##ыгов": 3928,
      "##ыше": 3929,
      "##ощ": 3930,
      "##оков": 3931,
      "##ты": 3932,
      "##тер": 3933,
      "##цами": 3934,
      "##иц": 3935,
      "##исс": 3936,
      "##исп": 3937,
      "##мет": 3938,
      "##мин": 3939,
      "##кей": 3940,
      "##уй": 3941,
      "##ял": 3942,
      "##яются": 3943,
      "##ящих": 3944,
      "##юст": 3945,
      "##зе": 3946,
      "##вин": 3947,
      "##вой": 3948,
      "##вящен": 3949,
      "##сах": 3950,
      "##ченных": 3951,
      "##члени": 3952,
      "##гл": 3953,
      "##гин": 3954,
      "##гах": 3955,
      "##по": 3956,
      "##пам": 3957,
      "##пром": 3958,
      "##жал": 3959,
      "##жут": 3960,
      "##жить": 3961,
      "##щие": 3962,
      "##шка": 3963,
      "##шла": 3964,
      "##шив": 3965,
      "##шую": 3966,
      "##шев": 3967,
      "##шкин": 3968,
      "##енс": 3969,
      "##енко": 3970,
      "##енными": 3971,
      "##сторон": 3972,
      "##стриров": 3973,
      "##ово": 3974,
      "##рач": 3975,
      "##рами": 3976,
      "##ногра": 3977,
      "##ерин": 3978,
      "пода": 3979,
      "поло": 3980,
      "полаг": 3981,
      "поощ": 3982,
      "##реги": 3983,
      "##омп": 3984,
      "##орные": 3985,
      "##оритет": 3986,
      "##анов": 3987,
      "##олее": 3988,
      "##отреб": 3989,
      "##город": 3990,
      "замен": 3991,
      "зафик": 3992,
      "##кашен": 3993,
      "##инт": 3994,
      "##инской": 3995,
      "##руют": 3996,
      "соедин": 3997,
      "сорев": 3998,
      "союза": 3999,
      "сокращ": 4000,
      "##ейн": 4001,
      "прост": 4002,
      "пропу": 4003,
      "проиг": 4004,
      "продав": 4005,
      "прошел": 4006,
      "пройдет": 4007,
      "нак": 4008,
      "намер": 4009,
      "науч": 4010,
      "##лась": 4011,
      "##ладельца": 4012,
      "##обнов": 4013,
      "##обрит": 4014,
      "##ктуры": 4015,
      "прес": 4016,
      "прекрат": 4017,
      "препарат": 4018,
      "##иваться": 4019,
      "##ивший": 4020,
      "обе": 4021,
      "обман": 4022,
      "##ельного": 4023,
      "##награ": 4024,
      "отб": 4025,
      "отве": 4026,
      "отвеч": 4027,
      "регла": 4028,
      "выстав": 4029,
      "вымо": 4030,
      "вызв": 4031,
      "выяс": 4032,
      "выруч": 4033,
      "приход": 4034,
      "придется": 4035,
      "##способ": 4036,
      "перера": 4037,
      "перене": 4038,
      "##авлов": 4039,
      "комму": 4040,
      "##гиени": 4041,
      "##ард": 4042,
      "##армей": 4043,
      "##альная": 4044,
      "неоп": 4045,
      "неисп": 4046,
      "##лоу": 4047,
      "##ряс": 4048,
      "предел": 4049,
      "предло": 4050,
      "разных": 4051,
      "разме": 4052,
      "свыше": 4053,
      "конта": 4054,
      "иннов": 4055,
      "инстит": 4056,
      "##коп": 4057,
      "##ляется": 4058,
      "##ительные": 4059,
      "##ительности": 4060,
      "компанию": 4061,
      "##чами": 4062,
      "##моч": 4063,
      "##мосф": 4064,
      "возле": 4065,
      "возника": 4066,
      "возобнов": 4067,
      "вознагра": 4068,
      "ново": 4069,
      "новым": 4070,
      "##ывая": 4071,
      "##пара": 4072,
      "изнач": 4073,
      "сотруднику": 4074,
      "сотрудником": 4075,
      "мида": 4076,
      "заявители": 4077,
      "заявлении": 4078,
      "опти": 4079,
      "военном": 4080,
      "гост": 4081,
      "визит": 4082,
      "работают": 4083,
      "##ектора": 4084,
      "российском": 4085,
      "российско": 4086,
      "##чиков": 4087,
      "летело": 4088,
      "мае": 4089,
      "маска": 4090,
      "мария": 4091,
      "провести": 4092,
      "##дум": 4093,
      "запорож": 4094,
      "##гами": 4095,
      "##гаем": 4096,
      "украина": 4097,
      "##ирован": 4098,
      "посвящен": 4099,
      "дво": 4100,
      "двое": 4101,
      "исправ": 4102,
      "теории": 4103,
      "теория": 4104,
      "суб": 4105,
      "суверен": 4106,
      "##исты": 4107,
      "график": 4108,
      "##ющим": 4109,
      "пару": 4110,
      "пасен": 4111,
      "совладельца": 4112,
      "полный": 4113,
      "закреп": 4114,
      "должности": 4115,
      "повер": 4116,
      "повед": 4117,
      "поводу": 4118,
      "топл": 4119,
      "##ослед": 4120,
      "##основ": 4121,
      "##ервые": 4122,
      "судов": 4123,
      "судна": 4124,
      "верну": 4125,
      "версии": 4126,
      "развив": 4127,
      "услу": 4128,
      "взно": 4129,
      "решить": 4130,
      "решений": 4131,
      "убед": 4132,
      "##агнит": 4133,
      "расчлени": 4134,
      "друг": 4135,
      "выдают": 4136,
      "протяжении": 4137,
      "говорит": 4138,
      "говорил": 4139,
      "путем": 4140,
      "генпро": 4141,
      "основных": 4142,
      "основным": 4143,
      "основании": 4144,
      "облад": 4145,
      "матч": 4146,
      "##станом": 4147,
      "техники": 4148,
      "колеб": 4149,
      "срока": 4150,
      "склад": 4151,
      "средний": 4152,
      "американским": 4153,
      "государство": 4154,
      "четко": 4155,
      "недели": 4156,
      "середин": 4157,
      "покину": 4158,
      "петроп": 4159,
      "центр": 4160,
      "находились": 4161,
      "которой": 4162,
      "признали": 4163,
      "признана": 4164,
      "крупные": 4165,
      "группа": 4166,
      "поддержку": 4167,
      "европы": 4168,
      "упро": 4169,
      "упла": 4170,
      "игр": 4171,
      "офз": 4172,
      "достичь": 4173,
      "достижения": 4174,
      "личного": 4175,
      "личный": 4176,
      "марте": 4177,
      "станут": 4178,
      "подчеркив": 4179,
      "запретить": 4180,
      "продолжается": 4181,
      "атмосф": 4182,
      "веществ": 4183,
      "использовании": 4184,
      "страну": 4185,
      "источников": 4186,
      "транс": 4187,
      "##ируется": 4188,
      "##ернатив": 4189,
      "##уются": 4190,
      "потребность": 4191,
      "дети": 4192,
      "кино": 4193,
      "лукашен": 4194,
      "назем": 4195,
      "респондент": 4196,
      "группой": 4197,
      "группировки": 4198,
      "соответствует": 4199,
      "создать": 4200,
      "частей": 4201,
      "уточняет": 4202,
      "прошед": 4203,
      "прошло": 4204,
      "производства": 4205,
      "производство": 4206,
      "члены": 4207,
      "исключения": 4208,
      "обвинения": 4209,
      "обвинение": 4210,
      "замет": 4211,
      "##лагод": 4212,
      "открыто": 4213,
      "квали": 4214,
      "требует": 4215,
      "электрон": 4216,
      "росатом": 4217,
      "принять": 4218,
      "налоговой": 4219,
      "система": 4220,
      "блоки": 4221,
      "остается": 4222,
      "остальные": 4223,
      "форму": 4224,
      "поставок": 4225,
      "заблокиров": 4226,
      "наблюд": 4227,
      "режиме": 4228,
      "главного": 4229,
      "переговорах": 4230,
      "специалиста": 4231,
      "транспорта": 4232,
      "инвестора": 4233,
      "следующий": 4234,
      "трампу": 4235,
      "запрещена": 4236,
      "конфликтов": 4237,
      "июле": 4238,
      "июня": 4239,
      "удара": 4240,
      "проходят": 4241,
      "индии": 4242,
      "международных": 4243,
      "международной": 4244,
      "викт": 4245,
      "трампом": 4246,
      "произошла": 4247,
      "вашингтона": 4248,
      "аппарат": 4249,
      "дальше": 4250,
      "франции": 4251,
      "обязатель": 4252,
      "принимать": 4253,
      "команду": 4254,
      "частично": 4255,
      "собственных": 4256,
      "собственные": 4257,
      "пакета": 4258,
      "сниз": 4259,
      "отдельные": 4260,
      "выступать": 4261,
      "играл": 4262,
      "класси": 4263,
      "сентябре": 4264,
      "##нинг": 4265,
      "похищ": 4266,
      "происход": 4267,
      "происходит": 4268,
      "преступления": 4269,
      "обсуждения": 4270,
      "авиак": 4271,
      "планах": 4272,
      "регулярного": 4273,
      "истор": 4274,
      "лучше": 4275,
      "утвержд": 4276,
      "понят": 4277,
      "возрасте": 4278,
      "администра": 4279,
      "волк": 4280,
      "идеи": 4281,
      "метод": 4282,
      "нигера": 4283,
      "третий": 4284,
      "предусматрив": 4285,
      "участвовать": 4286,
      "практически": 4287,
      "понимать": 4288,
      "господ": 4289,
      "начальника": 4290,
      "деятельность": 4291,
      "всеми": 4292,
      "эффективность": 4293,
      "федераль": 4294,
      "желез": 4295,
      "итоге": 4296,
      "успеш": 4297,
      "учета": 4298,
      "учетом": 4299,
      "независ": 4300,
      "инфраструктуры": 4301,
      "фигури": 4302,
      "впервые": 4303,
      "школь": 4304,
      "##штаб": 4305,
      "пожар": 4306,
      "пожизн": 4307,
      "доступны": 4308,
      "участия": 4309,
      "красноармей": 4310,
      "исследований": 4311,
      "анапе": 4312,
      "литов": 4313,
      "прило": 4314,
      "прямо": 4315,
      "отчетности": 4316,
      "призвал": 4317,
      "министерство": 4318,
      "мошенничество": 4319,
      "содержание": 4320,
      "бесс": 4321,
      "планы": 4322,
      "плазмы": 4323,
      "публикации": 4324,
      "троих": 4325,
      "навыки": 4326,
      "обучение": 4327,
      "болга": 4328,
      "##агиров": 4329,
      "нагрузки": 4330,
      "мировой": 4331,
      "существует": 4332,
      "полномоч": 4333,
      "помогает": 4334,
      "журналист": 4335,
      "правоохранительные": 4336,
      "тяжелом": 4337,
      "дивизионе": 4338,
      "дивизиона": 4339,
      "думаешь": 4340,
      "кремле": 4341,
      "ожидается": 4342,
      "##реждений": 4343,
      "выросла": 4344,
      "маслоу": 4345,
      "масштаб": 4346,
      "совместно": 4347,
      "продажу": 4348,
      "предварительным": 4349,
      "герм": 4350,
      "сирии": 4351,
      "север": 4352,
      "сибири": 4353,
      "оборота": 4354,
      "допуск": 4355,
      "машину": 4356,
      "авторы": 4357,
      "мессендж": 4358,
      "населенных": 4359,
      "подтвердил": 4360,
      "нефтя": 4361,
      "обвиняемых": 4362,
      "хоккей": 4363,
      "степ": 4364,
      "вызывает": 4365,
      "экстрем": 4366,
      "гендиректор": 4367,
      "актри": 4368,
      "шарыпов": 4369,
      "настоящее": 4370,
      "##кистана": 4371,
      "обстоятельства": 4372,
      "реестр": 4373,
      "достаточно": 4374,
      "справедлив": 4375,
      "возглавля": 4376,
      "одобр": 4377,
      "платформы": 4378,
      "апреле": 4379,
      "элемент": 4380,
      "ситилинк": 4381,
      "губернатор": 4382,
      "иноаг": 4383,
      "книги": 4384,
      "садыгов": 4385,
      "##тенант": 4386,
      "зарплаты": 4387,
      "наиболее": 4388,
      "розыск": 4389,
      "приводит": 4390,
      "усилий": 4391,
      "января": 4392,
      "криптокошелек": 4393,
      "бюджет": 4394,
      "великобрит": 4395,
      "зарубежных": 4396,
      "злоумышленники": 4397,
      "альтернатив": 4398,
      "бумаги": 4399,
      "нелег": 4400,
      "тыся": 4401,
      "цикл": 4402,
      "##ограф": 4403,
      "двумя": 4404,
      "туроператоров": 4405,
      "склада": 4406,
      "военнослужащих": 4407,
      "непосред": 4408,
      "балаш": 4409,
      "вейпов": 4410,
      "лейтенант": 4411,
      "менее": 4412,
      "рютте": 4413,
      "сразу": 4414,
      "соревнов": 4415,
      "вымогатель": 4416,
      "контакт": 4417,
      "инновацион": 4418,
      "институт": 4419,
      "изначально": 4420,
      "оптимиз": 4421,
      "запорожской": 4422,
      "пасенко": 4423,
      "расчленили": 4424,
      "генпроку": 4425,
      "середине": 4426,
      "петропавлов": 4427,
      "лукашенко": 4428,
      "аф": 4429,
      "аш": 4430,
      "атом": 4431,
      "вт": 4432,
      "вов": 4433,
      "веч": 4434,
      "ввод": 4435,
      "вину": 4436,
      "гера": 4437,
      "где": 4438,
      "ден": 4439,
      "дар": 4440,
      "дже": 4441,
      "дум": 4442,
      "дене": 4443,
      "его": 4444,
      "жил": 4445,
      "жиль": 4446,
      "знания": 4447,
      "ищ": 4448,
      "кого": 4449,
      "канд": 4450,
      "коп": 4451,
      "корот": 4452,
      "лож": 4453,
      "линк": 4454,
      "лнр": 4455,
      "му": 4456,
      "мера": 4457,
      "мере": 4458,
      "мура": 4459,
      "нер": 4460,
      "оз": 4461,
      "ощ": 4462,
      "пти": 4463,
      "пилот": 4464,
      "роль": 4465,
      "сх": 4466,
      "сом": 4467,
      "сли": 4468,
      "сере": 4469,
      "сесси": 4470,
      "тщ": 4471,
      "тен": 4472,
      "тру": 4473,
      "той": 4474,
      "тек": 4475,
      "твер": 4476,
      "ух": 4477,
      "ули": 4478,
      "уход": 4479,
      "удерж": 4480,
      "уступ": 4481,
      "устро": 4482,
      "улет": 4483,
      "фу": 4484,
      "фот": 4485,
      "хай": 4486,
      "цена": 4487,
      "чат": 4488,
      "чест": 4489,
      "шан": 4490,
      "этом": 4491,
      "юго": 4492,
      "яв": 4493,
      "##ден": 4494,
      "##дали": 4495,
      "##дже": 4496,
      "##дян": 4497,
      "##аю": 4498,
      "##лон": 4499,
      "##ланд": 4500,
      "##ье": 4501,
      "##нской": 4502,
      "##цей": 4503,
      "##цем": 4504,
      "##кро": 4505,
      "##уш": 4506,
      "##уру": 4507,
      "##уков": 4508,
      "##фл": 4509,
      "##фед": 4510,
      "##филь": 4511,
      "##финге": 4512,
      "##яну": 4513,
      "##зь": 4514,
      "##зиров": 4515,
      "##змом": 4516,
      "##зрач": 4517,
      "##ваться": 4518,
      "##сий": 4519,
      "##сиру": 4520,
      "##чис": 4521,
      "##чную": 4522,
      "##гот": 4523,
      "##пы": 4524,
      "##поз": 4525,
      "##парт": 4526,
      "##жении": 4527,
      "##ждая": 4528,
      "##бер": 4529,
      "##бит": 4530,
      "##шов": 4531,
      "##шем": 4532,
      "##шает": 4533,
      "##эн": 4534,
      "##ъект": 4535,
      "##енов": 4536,
      "##стрел": 4537,
      "##овест": 4538,
      "##оволь": 4539,
      "##рали": 4540,
      "##ноли": 4541,
      "##нориров": 4542,
      "##нис": 4543,
      "##ниров": 4544,
      "##алз": 4545,
      "##итив": 4546,
      "полов": 4547,
      "поруч": 4548,
      "поможет": 4549,
      "##аторов": 4550,
      "##омб": 4551,
      "##омот": 4552,
      "##илет": 4553,
      "##олаг": 4554,
      "##оточ": 4555,
      "##риц": 4556,
      "##рию": 4557,
      "##рина": 4558,
      "застав": 4559,
      "зачи": 4560,
      "##онт": 4561,
      "##оненты": 4562,
      "рад": 4563,
      "##инто": 4564,
      "##инвест": 4565,
      "##руется": 4566,
      "##рукту": 4567,
      "сос": 4568,
      "##ейне": 4569,
      "##еди": 4570,
      "прозрач": 4571,
      "най": 4572,
      "насколь": 4573,
      "наде": 4574,
      "нашли": 4575,
      "##лам": 4576,
      "##обили": 4577,
      "##ображ": 4578,
      "превы": 4579,
      "сторон": 4580,
      "структу": 4581,
      "образов": 4582,
      "##листиче": 4583,
      "##дах": 4584,
      "##дающий": 4585,
      "##дапе": 4586,
      "отриц": 4587,
      "вок": 4588,
      "репара": 4589,
      "выяв": 4590,
      "выпу": 4591,
      "выраж": 4592,
      "выстрел": 4593,
      "привы": 4594,
      "привести": 4595,
      "присо": 4596,
      "придержив": 4597,
      "приоритет": 4598,
      "##ческой": 4599,
      "##ческий": 4600,
      "##спорт": 4601,
      "перс": 4602,
      "перей": 4603,
      "##тора": 4604,
      "##авший": 4605,
      "##авшего": 4606,
      "кому": 4607,
      "##луат": 4608,
      "##алистиче": 4609,
      "нести": 4610,
      "неуд": 4611,
      "неправ": 4612,
      "невер": 4613,
      "невы": 4614,
      "непри": 4615,
      "нехват": 4616,
      "годов": 4617,
      "подвод": 4618,
      "##ждении": 4619,
      "предсто": 4620,
      "предпол": 4621,
      "предприятия": 4622,
      "разыск": 4623,
      "свед": 4624,
      "контек": 4625,
      "инжен": 4626,
      "сообщал": 4627,
      "##ратить": 4628,
      "##ходов": 4629,
      "##ляющий": 4630,
      "##лялись": 4631,
      "##ительных": 4632,
      "##ительным": 4633,
      "досто": 4634,
      "доступа": 4635,
      "##чаются": 4636,
      "моз": 4637,
      "монит": 4638,
      "могли": 4639,
      "новый": 4640,
      "##аниях": 4641,
      "##ывали": 4642,
      "которым": 4643,
      "мире": 4644,
      "##говый": 4645,
      "каким": 4646,
      "кариб": 4647,
      "##езда": 4648,
      "##ерах": 4649,
      "заявлял": 4650,
      "##екс": 4651,
      "##екрет": 4652,
      "##екина": 4653,
      "##ственные": 4654,
      "##ственное": 4655,
      "опис": 4656,
      "оплачив": 4657,
      "##ленными": 4658,
      "##ечат": 4659,
      "##ечения": 4660,
      "военного": 4661,
      "##дир": 4662,
      "госкор": 4663,
      "##верс": 4664,
      "##верг": 4665,
      "виза": 4666,
      "визита": 4667,
      "осудили": 4668,
      "работать": 4669,
      "лишение": 4670,
      "##комнат": 4671,
      "евг": 4672,
      "одном": 4673,
      "странам": 4674,
      "провин": 4675,
      "##нял": 4676,
      "##няется": 4677,
      "президенту": 4678,
      "##ироваться": 4679,
      "##реть": 4680,
      "##ействие": 4681,
      "деле": 4682,
      "получат": 4683,
      "получает": 4684,
      "правиль": 4685,
      "россиянина": 4686,
      "часов": 4687,
      "механи": 4688,
      "##менте": 4689,
      "деко": 4690,
      "##очные": 4691,
      "грамот": 4692,
      "##ологиче": 4693,
      "совбез": 4694,
      "ваноли": 4695,
      "##озмож": 4696,
      "должно": 4697,
      "повыш": 4698,
      "первую": 4699,
      "первым": 4700,
      "##ционной": 4701,
      "топ": 4702,
      "анна": 4703,
      "владель": 4704,
      "судну": 4705,
      "украину": 4706,
      "местах": 4707,
      "произвед": 4708,
      "развед": 4709,
      "##агав": 4710,
      "##онец": 4711,
      "расчет": 4712,
      "выдаче": 4713,
      "выдавать": 4714,
      "##строф": 4715,
      "челове": 4716,
      "окру": 4717,
      "дистан": 4718,
      "говоря": 4719,
      "говорили": 4720,
      "основатель": 4721,
      "каналы": 4722,
      "##ателям": 4723,
      "обладает": 4724,
      "результаты": 4725,
      "результатов": 4726,
      "результатом": 4727,
      "результатами": 4728,
      "матчи": 4729,
      "увол": 4730,
      "управлении": 4731,
      "противника": 4732,
      "противодейств": 4733,
      "искать": 4734,
      "##шими": 4735,
      "##ностями": 4736,
      "колап": 4737,
      "рубеж": 4738,
      "базов": 4739,
      "добиться": 4740,
      "##ителям": 4741,
      "белого": 4742,
      "##ницу": 4743,
      "##мулят": 4744,
      "последним": 4745,
      "двусторон": 4746,
      "видят": 4747,
      "доме": 4748,
      "многоразов": 4749,
      "числа": 4750,
      "числен": 4751,
      "безопасность": 4752,
      "минфин": 4753,
      "минюст": 4754,
      "ответил": 4755,
      "бизнесе": 4756,
      "упом": 4757,
      "экспер": 4758,
      "экспорт": 4759,
      "эксплуат": 4760,
      "игре": 4761,
      "станов": 4762,
      "регистра": 4763,
      "регионах": 4764,
      "регионом": 4765,
      "запрете": 4766,
      "соответственно": 4767,
      "целей": 4768,
      "целях": 4769,
      "целям": 4770,
      "располаг": 4771,
      "атриб": 4772,
      "вещ": 4773,
      "вега": 4774,
      "позитив": 4775,
      "вертик": 4776,
      "использования": 4777,
      "водителя": 4778,
      "документа": 4779,
      "акций": 4780,
      "потребуется": 4781,
      "детал": 4782,
      "кир": 4783,
      "томагав": 4784,
      "##ременно": 4785,
      "общаться": 4786,
      "решениях": 4787,
      "мотивацию": 4788,
      "систему": 4789,
      "создал": 4790,
      "созданию": 4791,
      "человеком": 4792,
      "контроле": 4793,
      "санкция": 4794,
      "втором": 4795,
      "подготовке": 4796,
      "внутри": 4797,
      "исключением": 4798,
      "риск": 4799,
      "являются": 4800,
      "замороз": 4801,
      "состоялся": 4802,
      "откры": 4803,
      "периода": 4804,
      "заключили": 4805,
      "установки": 4806,
      "##анос": 4807,
      "большая": 4808,
      "супруги": 4809,
      "супруга": 4810,
      "имени": 4811,
      "корпо": 4812,
      "факту": 4813,
      "электри": 4814,
      "электром": 4815,
      "##ающий": 4816,
      "##ающие": 4817,
      "генерал": 4818,
      "европейской": 4819,
      "европейских": 4820,
      "европейского": 4821,
      "будапе": 4822,
      "оказывать": 4823,
      "хотели": 4824,
      "статьям": 4825,
      "стратегии": 4826,
      "испытаний": 4827,
      "политики": 4828,
      "политических": 4829,
      "главное": 4830,
      "специалист": 4831,
      "сексу": 4832,
      "##симов": 4833,
      "##надз": 4834,
      "выполнить": 4835,
      "запрещенных": 4836,
      "гола": 4837,
      "голки": 4838,
      "значительно": 4839,
      "сезона": 4840,
      "ударов": 4841,
      "фонд": 4842,
      "штате": 4843,
      "проходит": 4844,
      "изменений": 4845,
      "проведения": 4846,
      "проведение": 4847,
      "проведите": 4848,
      "любом": 4849,
      "любые": 4850,
      "интересы": 4851,
      "внутренний": 4852,
      "войск": 4853,
      "войну": 4854,
      "влияет": 4855,
      "ядерной": 4856,
      "##ехал": 4857,
      "инфляции": 4858,
      "вашингтоне": 4859,
      "апел": 4860,
      "шагала": 4861,
      "ведомстве": 4862,
      "победы": 4863,
      "процессе": 4864,
      "дополнительным": 4865,
      "мошенники": 4866,
      "четырех": 4867,
      "турнира": 4868,
      "быст": 4869,
      "было": 4870,
      "пятницу": 4871,
      "рейт": 4872,
      "снижение": 4873,
      "полиция": 4874,
      "полицей": 4875,
      "отдельных": 4876,
      "ресурсы": 4877,
      "выступает": 4878,
      "особо": 4879,
      "будущих": 4880,
      "совершить": 4881,
      "экономических": 4882,
      "земле": 4883,
      "земля": 4884,
      "ниже": 4885,
      "осужден": 4886,
      "##сион": 4887,
      "защиту": 4888,
      "обратился": 4889,
      "авианос": 4890,
      "планов": 4891,
      "психологи": 4892,
      "достигнут": 4893,
      "боевые": 4894,
      "содержа": 4895,
      "зумеров": 4896,
      "дроб": 4897,
      "понрав": 4898,
      "возраста": 4899,
      "воздушного": 4900,
      "банка": 4901,
      "метал": 4902,
      "нигер": 4903,
      "нигере": 4904,
      "симон": 4905,
      "шахмат": 4906,
      "##перев": 4907,
      "напом": 4908,
      "напомин": 4909,
      "мирногра": 4910,
      "потенциал": 4911,
      "агентство": 4912,
      "инициативе": 4913,
      "далекина": 4914,
      "малкин": 4915,
      "##ирается": 4916,
      "принял": 4917,
      "самолетов": 4918,
      "максимальное": 4919,
      "баллистиче": 4920,
      "довод": 4921,
      "имена": 4922,
      "ожо": 4923,
      "оружие": 4924,
      "сфере": 4925,
      "сформиров": 4926,
      "успех": 4927,
      "ценность": 4928,
      "своего": 4929,
      "рассматривать": 4930,
      "энергонос": 4931,
      "ближнего": 4932,
      "аэропорта": 4933,
      "категорий": 4934,
      "подразделений": 4935,
      "впослед": 4936,
      "миллени": 4937,
      "модель": 4938,
      "##елось": 4939,
      "столичного": 4940,
      "границу": 4941,
      "участие": 4942,
      "криптоинвест": 4943,
      "пользоваться": 4944,
      "пользователей": 4945,
      "норвегия": 4946,
      "вступления": 4947,
      "литвы": 4948,
      "писал": 4949,
      "нарушения": 4950,
      "отличие": 4951,
      "перечис": 4952,
      "##ющихся": 4953,
      "усиленные": 4954,
      "рынка": 4955,
      "фонтанки": 4956,
      "ввел": 4957,
      "мобилизационный": 4958,
      "травм": 4959,
      "##виж": 4960,
      "положения": 4961,
      "награду": 4962,
      "обучения": 4963,
      "странах": 4964,
      "авторитет": 4965,
      "венгерской": 4966,
      "прокуратуры": 4967,
      "центральной": 4968,
      "никол": 4969,
      "удал": 4970,
      "##питалз": 4971,
      "растет": 4972,
      "можете": 4973,
      "десять": 4974,
      "октябрьский": 4975,
      "убежд": 4976,
      "органов": 4977,
      "рассмотрения": 4978,
      "недостат": 4979,
      "газета": 4980,
      "подозреваемых": 4981,
      "попытки": 4982,
      "брифинге": 4983,
      "думаю": 4984,
      "лаврова": 4985,
      "мероприят": 4986,
      "пенсион": 4987,
      "устройства": 4988,
      "сторону": 4989,
      "миграции": 4990,
      "зависимости": 4991,
      "консульства": 4992,
      "психологической": 4993,
      "обнаружили": 4994,
      "футболь": 4995,
      "феврале": 4996,
      "февраля": 4997,
      "атаки": 4998,
      "атаков": 4999,
      "глуб": 5000,
      "глубо": 5001,
      "музея": 5002,
      "язык": 5003,
      "заседание": 5004,
      "обсуд": 5005,
      "обсудили": 5006,
      "председатель": 5007,
      "сотрудничества": 5008,
      "автоб": 5009,
      "мессендже": 5010,
      "##вардии": 5011,
      "соответствующий": 5012,
      "требованиям": 5013,
      "обвиняемые": 5014,
      "порядок": 5015,
      "равно": 5016,
      "присут": 5017,
      "присво": 5018,
      "телеканал": 5019,
      "повестки": 5020,
      "окончатель": 5021,
      "больницы": 5022,
      "больницу": 5023,
      "рынок": 5024,
      "звонков": 5025,
      "предусмотрены": 5026,
      "арестовал": 5027,
      "женщины": 5028,
      "логистиче": 5029,
      "пассажир": 5030,
      "зеленский": 5031,
      "локомот": 5032,
      "меньше": 5033,
      "##фикации": 5034,
      "##нодорож": 5035,
      "поражения": 5036,
      "сократить": 5037,
      "прежнему": 5038,
      "востока": 5039,
      "причинам": 5040,
      "возбудили": 5041,
      "взгляд": 5042,
      "путиным": 5043,
      "второе": 5044,
      "исчезнов": 5045,
      "самостоятельно": 5046,
      "криптотрейдера": 5047,
      "доверия": 5048,
      "альянса": 5049,
      "восприним": 5050,
      "стабильности": 5051,
      "питтсбург": 5052,
      "бонали": 5053,
      "голосов": 5054,
      "заместителя": 5055,
      "прекращение": 5056,
      "неизвест": 5057,
      "предпоч": 5058,
      "разруш": 5059,
      "работодателя": 5060,
      "падения": 5061,
      "прошлого": 5062,
      "купянск": 5063,
      "алкозамки": 5064,
      "швейцер": 5065,
      "компетенции": 5066,
      "ежегод": 5067,
      "кэпиталз": 5068,
      "крес": 5069,
      "товар": 5070,
      "##ившихся": 5071,
      "##ившиеся": 5072,
      "статус": 5073,
      "восьми": 5074,
      "комментари": 5075,
      "световые": 5076,
      "свидетель": 5077,
      "госсекрет": 5078,
      "осенью": 5079,
      "ситуациях": 5080,
      "удовольствие": 5081,
      "кучеров": 5082,
      "единственная": 5083,
      "италии": 5084,
      "олимпий": 5085,
      "саяногор": 5086,
      "хозяй": 5087,
      "революции": 5088,
      "брюсс": 5089,
      "встрет": 5090,
      "михаил": 5091,
      "налого": 5092,
      "сцена": 5093,
      "уфсб": 5094,
      "чекали": 5095,
      "экипаж": 5096,
      "зафиксиров": 5097,
      "отвечая": 5098,
      "отвечает": 5099,
      "регламент": 5100,
      "коммуника": 5101,
      "предлогом": 5102,
      "размещен": 5103,
      "возникает": 5104,
      "вознаграждение": 5105,
      "поведение": 5106,
      "колебания": 5107,
      "покинул": 5108,
      "уплаченных": 5109,
      "подчеркивает": 5110,
      "атмосферу": 5111,
      "железнодорож": 5112,
      "независим": 5113,
      "степени": 5114,
      "балашова": 5115,
      "генпрокурат": 5116,
      "герасимов": 5117,
      "дарк": 5118,
      "денеж": 5119,
      "кандид": 5120,
      "мурадян": 5121,
      "слишком": 5122,
      "сереб": 5123,
      "тщатель": 5124,
      "ухуд": 5125,
      "насколько": 5126,
      "достоин": 5127,
      "монитор": 5128,
      "госкорпора": 5129,
      "совбеза": 5130,
      "колапинто": 5131,
      "атрибут": 5132,
      "корпоратив": 5133,
      "впоследствии": 5134,
      "криптоинвестора": 5135,
      ".)": 5136,
      "апл": 5137,
      "аук": 5138,
      "араб": 5139,
      "бен": 5140,
      "бин": 5141,
      "боро": 5142,
      "брен": 5143,
      "бомб": 5144,
      "вци": 5145,
      "век": 5146,
      "влож": 5147,
      "вну": 5148,
      "вред": 5149,
      "вите": 5150,
      "втор": 5151,
      "винов": 5152,
      "внеш": 5153,
      "гт": 5154,
      "гре": 5155,
      "гор": 5156,
      "герб": 5157,
      "груз": 5158,
      "гроз": 5159,
      "дать": 5160,
      "дина": 5161,
      "дально": 5162,
      "демон": 5163,
      "еж": 5164,
      "жили": 5165,
      "жены": 5166,
      "зала": 5167,
      "ив": 5168,
      "иера": 5169,
      "кто": 5170,
      "культ": 5171,
      "кост": 5172,
      "кварти": 5173,
      "ль": 5174,
      "лаб": 5175,
      "лека": 5176,
      "лант": 5177,
      "мел": 5178,
      "ман": 5179,
      "меч": 5180,
      "нэ": 5181,
      "нали": 5182,
      "ним": 5183,
      "нена": 5184,
      "оо": 5185,
      "она": 5186,
      "оди": 5187,
      "очев": 5188,
      "пя": 5189,
      "пам": 5190,
      "пля": 5191,
      "плю": 5192,
      "паци": 5193,
      "прет": 5194,
      "пекин": 5195,
      "пво": 5196,
      "педа": 5197,
      "руд": 5198,
      "сл": 5199,
      "съ": 5200,
      "сектора": 5201,
      "тк": 5202,
      "тя": 5203,
      "тот": 5204,
      "три": 5205,
      "тах": 5206,
      "трем": 5207,
      "тему": 5208,
      "уник": 5209,
      "ухода": 5210,
      "фик": 5211,
      "фила": 5212,
      "флаг": 5213,
      "ху": 5214,
      "хищ": 5215,
      "хочет": 5216,
      "цены": 5217,
      "шта": 5218,
      "шаги": 5219,
      "эд": 5220,
      "яна": 5221,
      "##дк": 5222,
      "##дих": 5223,
      "##рх": 5224,
      "##ае": 5225,
      "##аешь": 5226,
      "##лн": 5227,
      "##лин": 5228,
      "##лани": 5229,
      "##ься": 5230,
      "##ьми": 5231,
      "##ьев": 5232,
      "##нять": 5233,
      "##нению": 5234,
      "##налы": 5235,
      "##ыле": 5236,
      "##йм": 5237,
      "##орат": 5238,
      "##оспособ": 5239,
      "##тов": 5240,
      "##тра": 5241,
      "##тел": 5242,
      "##цу": 5243,
      "##цен": 5244,
      "##цах": 5245,
      "##цсет": 5246,
      "##ип": 5247,
      "##иной": 5248,
      "##мс": 5249,
      "##мут": 5250,
      "##км": 5251,
      "##кв": 5252,
      "##кент": 5253,
      "##ущ": 5254,
      "##уст": 5255,
      "##яль": 5256,
      "##ющее": 5257,
      "##зму": 5258,
      "##зма": 5259,
      "##вил": 5260,
      "##вину": 5261,
      "##возмож": 5262,
      "##сол": 5263,
      "##чем": 5264,
      "##чном": 5265,
      "##чная": 5266,
      "##гина": 5267,
      "##пр": 5268,
      "##пали": 5269,
      "##пова": 5270,
      "##хай": 5271,
      "##жу": 5272,
      "##жет": 5273,
      "##жиров": 5274,
      "##жением": 5275,
      "##щении": 5276,
      "##щему": 5277,
      "##щика": 5278,
      "##щиков": 5279,
      "##бз": 5280,
      "##бол": 5281,
      "##бле": 5282,
      "##шат": 5283,
      "##шему": 5284,
      "##шите": 5285,
      "##эфф": 5286,
      "##ъяс": 5287,
      "##енность": 5288,
      "##стрии": 5289,
      "##ования": 5290,
      "##овало": 5291,
      "##овый": 5292,
      "##ованных": 5293,
      "##раа": 5294,
      "##рай": 5295,
      "##рам": 5296,
      "##рабу": 5297,
      "##ерем": 5298,
      "##еррори": 5299,
      "##алит": 5300,
      "##елями": 5301,
      "пост": 5302,
      "попа": 5303,
      "поправ": 5304,
      "постанов": 5305,
      "##репл": 5306,
      "##ректив": 5307,
      "##скур": 5308,
      "##атора": 5309,
      "##омо": 5310,
      "##омет": 5311,
      "##омня": 5312,
      "##омагнит": 5313,
      "##орто": 5314,
      "##орую": 5315,
      "##орте": 5316,
      "##оруд": 5317,
      "##ордин": 5318,
      "##анного": 5319,
      "##анное": 5320,
      "##илли": 5321,
      "##одов": 5322,
      "##олев": 5323,
      "##отят": 5324,
      "##отроп": 5325,
      "##рих": 5326,
      "##гой": 5327,
      "##ципл": 5328,
      "заст": 5329,
      "забы": 5330,
      "заслу": 5331,
      "заинт": 5332,
      "зачис": 5333,
      "##каун": 5334,
      "рабо": 5335,
      "##инга": 5336,
      "##руг": 5337,
      "##руем": 5338,
      "##руйте": 5339,
      "##ругатель": 5340,
      "сочет": 5341,
      "соцсет": 5342,
      "проте": 5343,
      "простран": 5344,
      "наста": 5345,
      "наращ": 5346,
      "##обы": 5347,
      "##обяз": 5348,
      "преми": 5349,
      "преиму": 5350,
      "##емы": 5351,
      "##емо": 5352,
      "##ивную": 5353,
      "ста": 5354,
      "стиль": 5355,
      "старт": 5356,
      "##ойти": 5357,
      "##ойчив": 5358,
      "##роволь": 5359,
      "##ровым": 5360,
      "обо": 5361,
      "оборот": 5362,
      "обоснов": 5363,
      "оборуд": 5364,
      "##ссий": 5365,
      "##лиять": 5366,
      "##дации": 5367,
      "##дайте": 5368,
      "##стиров": 5369,
      "росп": 5370,
      "росте": 5371,
      "отре": 5372,
      "отме": 5373,
      "отлож": 5374,
      "отчит": 5375,
      "отраж": 5376,
      "отстран": 5377,
      "вопро": 5378,
      "вороб": 5379,
      "реаль": 5380,
      "репут": 5381,
      "##атья": 5382,
      "выв": 5383,
      "выдерж": 5384,
      "вызов": 5385,
      "выезд": 5386,
      "вылет": 5387,
      "выступа": 5388,
      "выраст": 5389,
      "высад": 5390,
      "привер": 5391,
      "пришел": 5392,
      "причаст": 5393,
      "##чес": 5394,
      "##амин": 5395,
      "##амбле": 5396,
      "перем": 5397,
      "##ави": 5398,
      "##кова": 5399,
      "комн": 5400,
      "коммент": 5401,
      "комисс": 5402,
      "##гих": 5403,
      "##гией": 5404,
      "##равность": 5405,
      "небез": 5406,
      "невозмож": 5407,
      "##акси": 5408,
      "подро": 5409,
      "подел": 5410,
      "подмо": 5411,
      "подряд": 5412,
      "подверг": 5413,
      "##тегра": 5414,
      "##жды": 5415,
      "##идоп": 5416,
      "##нес": 5417,
      "##имой": 5418,
      "раза": 5419,
      "разные": 5420,
      "раздел": 5421,
      "разъяс": 5422,
      "##лег": 5423,
      "конст": 5424,
      "конно": 5425,
      "##кокарт": 5426,
      "##евом": 5427,
      "##евой": 5428,
      "##ратова": 5429,
      "##ляются": 5430,
      "##ительными": 5431,
      "дос": 5432,
      "доказ": 5433,
      "допрос": 5434,
      "комплект": 5435,
      "компьют": 5436,
      "компенс": 5437,
      "##иями": 5438,
      "мог": 5439,
      "новыми": 5440,
      "##жец": 5441,
      "##жеб": 5442,
      "##жера": 5443,
      "##ывы": 5444,
      "сотруднич": 5445,
      "сотрудничестве": 5446,
      "микро": 5447,
      "каз": 5448,
      "кафед": 5449,
      "карабу": 5450,
      "такого": 5451,
      "заявля": 5452,
      "заявлений": 5453,
      "опл": 5454,
      "оппоз": 5455,
      "##ленно": 5456,
      "##ленные": 5457,
      "##ленный": 5458,
      "военная": 5459,
      "ночь": 5460,
      "гости": 5461,
      "##верное": 5462,
      "визовые": 5463,
      "визового": 5464,
      "##росовест": 5465,
      "укреп": 5466,
      "##станции": 5467,
      "однов": 5468,
      "служеб": 5469,
      "##чики": 5470,
      "самом": 5471,
      "самод": 5472,
      "самой": 5473,
      "самого": 5474,
      "самый": 5475,
      "самоч": 5476,
      "летняя": 5477,
      "масс": 5478,
      "масса": 5479,
      "##ического": 5480,
      "##ическая": 5481,
      "##рылся": 5482,
      "ава": 5483,
      "президентов": 5484,
      "посл": 5485,
      "посещ": 5486,
      "делам": 5487,
      "получит": 5488,
      "теор": 5489,
      "тестиров": 5490,
      "##сами": 5491,
      "##анец": 5492,
      "начин": 5493,
      "начали": 5494,
      "сух": 5495,
      "суици": 5496,
      "деб": 5497,
      "департ": 5498,
      "##очный": 5499,
      "следственный": 5500,
      "следственного": 5501,
      "следующего": 5502,
      "##варе": 5503,
      "##сками": 5504,
      "##ющую": 5505,
      "такая": 5506,
      "##ренции": 5507,
      "##убий": 5508,
      "пас": 5509,
      "пауз": 5510,
      "##редил": 5511,
      "действующ": 5512,
      "действуют": 5513,
      "действовать": 5514,
      "действительно": 5515,
      "действительными": 5516,
      "##оза": 5517,
      "##озн": 5518,
      "##платель": 5519,
      "полета": 5520,
      "закона": 5521,
      "закрыто": 5522,
      "повлек": 5523,
      "повтор": 5524,
      "##ереж": 5525,
      "##ересов": 5526,
      "первых": 5527,
      "тогда": 5528,
      "точек": 5529,
      "анну": 5530,
      "анти": 5531,
      "аналит": 5532,
      "экскур": 5533,
      "##совали": 5534,
      "украинские": 5535,
      "вернуться": 5536,
      "месту": 5537,
      "месторо": 5538,
      "услож": 5539,
      "взят": 5540,
      "взять": 5541,
      "челяб": 5542,
      "решит": 5543,
      "перебо": 5544,
      "трабз": 5545,
      "убиты": 5546,
      "расстоя": 5547,
      "расходы": 5548,
      "другого": 5549,
      "друзь": 5550,
      "телеф": 5551,
      "передать": 5552,
      "согласов": 5553,
      "спеку": 5554,
      "директив": 5555,
      "говорить": 5556,
      "говорилось": 5557,
      "городов": 5558,
      "представля": 5559,
      "представителя": 5560,
      "основе": 5561,
      "основные": 5562,
      "основная": 5563,
      "большие": 5564,
      "большего": 5565,
      "канц": 5566,
      "обладают": 5567,
      "матчей": 5568,
      "возможного": 5569,
      "возможном": 5570,
      "##щенного": 5571,
      "##шись": 5572,
      "##носторон": 5573,
      "##ктивным": 5574,
      "сказали": 5575,
      "шенгенская": 5576,
      "шенгенскую": 5577,
      "продл": 5578,
      "отношение": 5579,
      "добы": 5580,
      "доброволь": 5581,
      "скрылся": 5582,
      "информация": 5583,
      "развитию": 5584,
      "белом": 5585,
      "белый": 5586,
      "белоу": 5587,
      "родину": 5588,
      "##дова": 5589,
      "##ницы": 5590,
      "специаль": 5591,
      "специализ": 5592,
      "американских": 5593,
      "психотроп": 5594,
      "##атау": 5595,
      "отметился": 5596,
      "сделки": 5597,
      "видите": 5598,
      "многопро": 5599,
      "вопросов": 5600,
      "арх": 5601,
      "арсен": 5602,
      "арбит": 5603,
      "центров": 5604,
      "спортив": 5605,
      "##матри": 5606,
      "##заев": 5607,
      "района": 5608,
      "району": 5609,
      "находился": 5610,
      "признание": 5611,
      "признанной": 5612,
      "крупным": 5613,
      "очка": 5614,
      "##нительное": 5615,
      "финал": 5616,
      "##ованы": 5617,
      "командование": 5618,
      "несколькими": 5619,
      "поддержка": 5620,
      "поддержив": 5621,
      "поддерживает": 5622,
      "поддерживают": 5623,
      "бизнесом": 5624,
      "упомин": 5625,
      "##ромехани": 5626,
      "всем": 5627,
      "игру": 5628,
      "игнориров": 5629,
      "указа": 5630,
      "указано": 5631,
      "предложили": 5632,
      "достижение": 5633,
      "проверке": 5634,
      "туриста": 5635,
      "туризму": 5636,
      "организацию": 5637,
      "организация": 5638,
      "марш": 5639,
      "марко": 5640,
      "маркус": 5641,
      "##дельф": 5642,
      "запрета": 5643,
      "ведет": 5644,
      "условии": 5645,
      "продолжит": 5646,
      "продолжает": 5647,
      "продолжают": 5648,
      "весь": 5649,
      "позже": 5650,
      "каждому": 5651,
      "использование": 5652,
      "использованы": 5653,
      "молдова": 5654,
      "##кнулся": 5655,
      "ракетных": 5656,
      "владимиром": 5657,
      "аккаун": 5658,
      "##летряс": 5659,
      "задача": 5660,
      "саббатикале": 5661,
      "луи": 5662,
      "общем": 5663,
      "мотивация": 5664,
      "соответствуют": 5665,
      "создателем": 5666,
      "санкцион": 5667,
      "парти": 5668,
      "показали": 5669,
      "показывает": 5670,
      "##рейдер": 5671,
      "выбросили": 5672,
      "подготовить": 5673,
      "автомат": 5674,
      "автомобили": 5675,
      "производит": 5676,
      "компаниям": 5677,
      "компаниях": 5678,
      "компаниями": 5679,
      "объявили": 5680,
      "важность": 5681,
      "исключение": 5682,
      "подчеркнула": 5683,
      "подчеркнули": 5684,
      "необходимость": 5685,
      "замед": 5686,
      "состоянию": 5687,
      "примеру": 5688,
      "периоды": 5689,
      "заключается": 5690,
      "здрав": 5691,
      "здании": 5692,
      "установил": 5693,
      "строгого": 5694,
      "дмитрия": 5695,
      "затро": 5696,
      "имеют": 5697,
      "имеющие": 5698,
      "корпора": 5699,
      "нужна": 5700,
      "ранен": 5701,
      "электромехани": 5702,
      "стоян": 5703,
      "принцами": 5704,
      "привез": 5705,
      "привели": 5706,
      "добавили": 5707,
      "европейские": 5708,
      "налогового": 5709,
      "республике": 5710,
      "республикан": 5711,
      "обеспечить": 5712,
      "беспалов": 5713,
      "оказались": 5714,
      "хотелось": 5715,
      "пострадали": 5716,
      "заброс": 5717,
      "наблю": 5718,
      "политику": 5719,
      "количества": 5720,
      "молодых": 5721,
      "молодым": 5722,
      "молодеж": 5723,
      "сложности": 5724,
      "сложнее": 5725,
      "инвесторы": 5726,
      "запрещенной": 5727,
      "конфликтом": 5728,
      "значение": 5729,
      "трудности": 5730,
      "трудоу": 5731,
      "штаты": 5732,
      "продаже": 5733,
      "проходил": 5734,
      "изменение": 5735,
      "правительством": 5736,
      "интересов": 5737,
      "увеличение": 5738,
      "внутренней": 5739,
      "внутренних": 5740,
      "международного": 5741,
      "влиянии": 5742,
      "влияние": 5743,
      "когда": 5744,
      "крушение": 5745,
      "крушении": 5746,
      "кругл": 5747,
      "медали": 5748,
      "медиков": 5749,
      "этапе": 5750,
      "ядерных": 5751,
      "завершения": 5752,
      "разработал": 5753,
      "определить": 5754,
      "отмечали": 5755,
      "значит": 5756,
      "края": 5757,
      "населен": 5758,
      "отправить": 5759,
      "отправился": 5760,
      "подозрев": 5761,
      "государственных": 5762,
      "победитель": 5763,
      "введение": 5764,
      "введении": 5765,
      "дальность": 5766,
      "камп": 5767,
      "пользу": 5768,
      "наркокарт": 5769,
      "принимают": 5770,
      "проводят": 5771,
      "сумма": 5772,
      "позволит": 5773,
      "быстро": 5774,
      "красной": 5775,
      "форвард": 5776,
      "цифры": 5777,
      "эффект": 5778,
      "##аемый": 5779,
      "отслеж": 5780,
      "вооружения": 5781,
      "военнообяз": 5782,
      "экономического": 5783,
      "пункта": 5784,
      "джоков": 5785,
      "земли": 5786,
      "землетряс": 5787,
      "каттел": 5788,
      "класса": 5789,
      "покупателей": 5790,
      "захотят": 5791,
      "защищ": 5792,
      "сознания": 5793,
      "преступление": 5794,
      "премьера": 5795,
      "выхода": 5796,
      "предоставления": 5797,
      "самоубий": 5798,
      "передач": 5799,
      "достигать": 5800,
      "александра": 5801,
      "казахстане": 5802,
      "казахстанского": 5803,
      "дагестан": 5804,
      "дробл": 5805,
      "курил": 5806,
      "курилов": 5807,
      "лучших": 5808,
      "узлов": 5809,
      "утверждает": 5810,
      "утверждают": 5811,
      "национального": 5812,
      "маску": 5813,
      "территори": 5814,
      "финансовых": 5815,
      "беспилотниками": 5816,
      "адмирал": 5817,
      "декабрь": 5818,
      "идея": 5819,
      "метра": 5820,
      "шахта": 5821,
      "непомня": 5822,
      "потенциала": 5823,
      "потенциальным": 5824,
      "включает": 5825,
      "участвуют": 5826,
      "энергетической": 5827,
      "позиция": 5828,
      "наркотических": 5829,
      "арест": 5830,
      "жену": 5831,
      "заняли": 5832,
      "клуб": 5833,
      "практике": 5834,
      "январе": 5835,
      "понимает": 5836,
      "порту": 5837,
      "кадры": 5838,
      "депутата": 5839,
      "взрыва": 5840,
      "окруженных": 5841,
      "городской": 5842,
      "интернета": 5843,
      "оценки": 5844,
      "эффективности": 5845,
      "среду": 5846,
      "рабочие": 5847,
      "выданные": 5848,
      "объяснил": 5849,
      "рассматривает": 5850,
      "рассматривается": 5851,
      "психопат": 5852,
      "психопаты": 5853,
      "психопатов": 5854,
      "аэропорту": 5855,
      "категория": 5856,
      "венесуэль": 5857,
      "утону": 5858,
      "старший": 5859,
      "применения": 5860,
      "применяться": 5861,
      "комиссия": 5862,
      "парома": 5863,
      "материала": 5864,
      "материалы": 5865,
      "планирует": 5866,
      "планируется": 5867,
      "пользователям": 5868,
      "исследования": 5869,
      "лояль": 5870,
      "прерв": 5871,
      "писали": 5872,
      "писала": 5873,
      "партии": 5874,
      "точно": 5875,
      "##носить": 5876,
      "нарушение": 5877,
      "отличился": 5878,
      "возникнов": 5879,
      "правилам": 5880,
      "расширен": 5881,
      "министерства": 5882,
      "министерстве": 5883,
      "обвиняют": 5884,
      "мошенничества": 5885,
      "мошенничестве": 5886,
      "цифровые": 5887,
      "нанесли": 5888,
      "алатау": 5889,
      "ввп": 5890,
      "валерий": 5891,
      "кизляр": 5892,
      "оформить": 5893,
      "оформляют": 5894,
      "сильные": 5895,
      "травмы": 5896,
      "положение": 5897,
      "навыков": 5898,
      "касым": 5899,
      "касаются": 5900,
      "двигателя": 5901,
      "объединения": 5902,
      "пассажиров": 5903,
      "венгерский": 5904,
      "близкие": 5905,
      "высокой": 5906,
      "высокую": 5907,
      "избербаша": 5908,
      "грузовых": 5909,
      "нынешний": 5910,
      "въезд": 5911,
      "въехать": 5912,
      "днях": 5913,
      "трени": 5914,
      "трлн": 5915,
      "трилли": 5916,
      "удалось": 5917,
      "нагрузка": 5918,
      "пребывания": 5919,
      "пребывающих": 5920,
      "предлагает": 5921,
      "инструмента": 5922,
      "договору": 5923,
      "можем": 5924,
      "мировом": 5925,
      "автоном": 5926,
      "исполнит": 5927,
      "полноц": 5928,
      "органами": 5929,
      "недостаточно": 5930,
      "газеты": 5931,
      "автомобилей": 5932,
      "осуществлять": 5933,
      "правоохранительных": 5934,
      "брига": 5935,
      "дуровым": 5936,
      "никак": 5937,
      "тамбов": 5938,
      "универс": 5939,
      "швейца": 5940,
      "сопровож": 5941,
      "сторона": 5942,
      "отмене": 5943,
      "выросли": 5944,
      "высказыв": 5945,
      "прибыл": 5946,
      "расследование": 5947,
      "открыть": 5948,
      "принятия": 5949,
      "обязанностей": 5950,
      "пакетам": 5951,
      "зависит": 5952,
      "маркетплейсы": 5953,
      "маркетплейсах": 5954,
      "урегулирования": 5955,
      "рекоменду": 5956,
      "рекомендов": 5957,
      "константина": 5958,
      "ахм": 5959,
      "номер": 5960,
      "сибирь": 5961,
      "учреждений": 5962,
      "порта": 5963,
      "заседании": 5964,
      "стимули": 5965,
      "приговорил": 5966,
      "приговорили": 5967,
      "предупре": 5968,
      "сверх": 5969,
      "сотрудничество": 5970,
      "минимальное": 5971,
      "объеме": 5972,
      "повышение": 5973,
      "потеряли": 5974,
      "путешеств": 5975,
      "путешествен": 5976,
      "отношениях": 5977,
      "организовать": 5978,
      "атаке": 5979,
      "финансирования": 5980,
      "третьей": 5981,
      "менеджеры": 5982,
      "инфраструктуру": 5983,
      "взаимодействия": 5984,
      "французского": 5985,
      "ужесточать": 5986,
      "крылат": 5987,
      "миде": 5988,
      "нейро": 5989,
      "рфс": 5990,
      "хокке": 5991,
      "южной": 5992,
      "пропала": 5993,
      "промышленного": 5994,
      "надругатель": 5995,
      "стеф": 5996,
      "подобных": 5997,
      "##невную": 5998,
      "различных": 5999,
      "русский": 6000,
      "движения": 6001,
      "сумерки": 6002,
      "телеканала": 6003,
      "экстрен": 6004,
      "призыва": 6005,
      "гендиректора": 6006,
      "пустым": 6007,
      "минздраве": 6008,
      "минздрава": 6009,
      "похитили": 6010,
      "ближайшие": 6011,
      "ближайшее": 6012,
      "пассажиры": 6013,
      "предпринимателей": 6014,
      "геомагнит": 6015,
      "какую": 6016,
      "меньшей": 6017,
      "превз": 6018,
      "выразил": 6019,
      "предыдущих": 6020,
      "возбуд": 6021,
      "страховых": 6022,
      "пособников": 6023,
      "повлияет": 6024,
      "пересели": 6025,
      "передавал": 6026,
      "передавать": 6027,
      "турецкого": 6028,
      "второго": 6029,
      "гарантии": 6030,
      "привлекал": 6031,
      "узбекистана": 6032,
      "криптотрейдер": 6033,
      "постоянно": 6034,
      "питтсбурга": 6035,
      "ботом": 6036,
      "единиц": 6037,
      "золота": 6038,
      "латв": 6039,
      "охран": 6040,
      "празднич": 6041,
      "сравнению": 6042,
      "цитата": 6043,
      "шараа": 6044,
      "стремится": 6045,
      "заявителями": 6046,
      "повысить": 6047,
      "руководителю": 6048,
      "руководителем": 6049,
      "вероятно": 6050,
      "гражданина": 6051,
      "используйте": 6052,
      "информационной": 6053,
      "вещества": 6054,
      "вещество": 6055,
      "акционеров": 6056,
      "рыболов": 6057,
      "строительства": 6058,
      "исрафил": 6059,
      "исрафилов": 6060,
      "миллиардер": 6061,
      "миллиарды": 6062,
      "релизе": 6063,
      "ребенок": 6064,
      "прокомментировал": 6065,
      "магазинов": 6066,
      "гулья": 6067,
      "жертвы": 6068,
      "королев": 6069,
      "косы": 6070,
      "катастроф": 6071,
      "пытался": 6072,
      "фрак": 6073,
      "юриди": 6074,
      "нападающий": 6075,
      "отечественных": 6076,
      "вынужден": 6077,
      "выиграл": 6078,
      "приведет": 6079,
      "персонал": 6080,
      "конкуренции": 6081,
      "конструктив": 6082,
      "списке": 6083,
      "посадки": 6084,
      "антидоп": 6085,
      "областях": 6086,
      "киеву": 6087,
      "сохранить": 6088,
      "чемпионатах": 6089,
      "фигурантов": 6090,
      "смысл": 6091,
      "прогноз": 6092,
      "парламентарий": 6093,
      "адаптации": 6094,
      "эпизода": 6095,
      "пхукете": 6096,
      "далее": 6097,
      "ерм": 6098,
      "зрителей": 6099,
      "зенит": 6100,
      "мяг": 6101,
      "павлом": 6102,
      "сети": 6103,
      "теракт": 6104,
      "токси": 6105,
      "устойчив": 6106,
      "херсон": 6107,
      "хамзаев": 6108,
      "хранятся": 6109,
      "##еринку": 6110,
      "поощря": 6111,
      "научно": 6112,
      "прекратить": 6113,
      "выясня": 6114,
      "##гиенические": 6115,
      "неисправность": 6116,
      "пределами": 6117,
      "двоих": 6118,
      "исправительной": 6119,
      "субъект": 6120,
      "поверх": 6121,
      "топлива": 6122,
      "взносов": 6123,
      "респондентов": 6124,
      "##лагодар": 6125,
      "виктор": 6126,
      "##нингт": 6127,
      "похищении": 6128,
      "авиакомп": 6129,
      "администрации": 6130,
      "господдерж": 6131,
      "всемир": 6132,
      "фигуристка": 6133,
      "красноармейска": 6134,
      "болгарии": 6135,
      "полномочий": 6136,
      "великобритания": 6137,
      "непосредственно": 6138,
      "соревнований": 6139,
      "вымогательства": 6140,
      "вовле": 6141,
      "вечеринку": 6142,
      "денег": 6143,
      "жилья": 6144,
      "мух": 6145,
      "сессии": 6146,
      "труда": 6147,
      "фотограф": 6148,
      "##ландия": 6149,
      "##дахкент": 6150,
      "вокруг": 6151,
      "невероят": 6152,
      "предстоит": 6153,
      "сведения": 6154,
      "контексте": 6155,
      "карибском": 6156,
      "декоратив": 6157,
      "вещи": 6158,
      "сексуального": 6159,
      "апелля": 6160,
      "быстр": 6161,
      "рейтинге": 6162,
      "напоминает": 6163,
      "энергоносителей": 6164,
      "пенсионеры": 6165,
      "мессенджерах": 6166,
      "присвоил": 6167,
      "саяногорска": 6168,
      "встретиться": 6169,
      "налогоплатель": 6170,
      "даркст": 6171,
      "достоинства": 6172,
      "арабскими": 6173,
      "биннингт": 6174,
      "бородих": 6175,
      "вциом": 6176,
      "витеб": 6177,
      "гтрк": 6178,
      "гербом": 6179,
      "грозит": 6180,
      "динами": 6181,
      "дальнобой": 6182,
      "иерарх": 6183,
      "костыле": 6184,
      "льгот": 6185,
      "лаборат": 6186,
      "лекар": 6187,
      "лантратова": 6188,
      "налич": 6189,
      "ооо": 6190,
      "одино": 6191,
      "очевид": 6192,
      "пятое": 6193,
      "педаго": 6194,
      "филадельф": 6195,
      "флагом": 6196,
      "##циплин": 6197,
      "заинтересов": 6198,
      "ростех": 6199,
      "вопросу": 6200,
      "небезопас": 6201,
      "подмосков": 6202,
      "компьютер": 6203,
      "карабудахкент": 6204,
      "одновременно": 6205,
      "самочув": 6206,
      "департам": 6207,
      "белоусов": 6208,
      "многопрофиль": 6209,
      "триллион": 6210,
      "тамбовской": 6211,
      "антидопингов": 6212,
      "костылева": 6213,
      "карабудахкентском": 6214,
      "аут": 6215,
      "бэ": 6216,
      "бет": 6217,
      "бро": 6218,
      "бор": 6219,
      "бил": 6220,
      "бед": 6221,
      "бур": 6222,
      "блю": 6223,
      "бое": 6224,
      "боли": 6225,
      "брать": 6226,
      "борот": 6227,
      "брк": 6228,
      "вя": 6229,
      "вш": 6230,
      "вит": 6231,
      "вени": 6232,
      "всп": 6233,
      "вам": 6234,
      "вай": 6235,
      "врат": 6236,
      "встан": 6237,
      "вели": 6238,
      "впл": 6239,
      "вско": 6240,
      "вечно": 6241,
      "гн": 6242,
      "гон": 6243,
      "гав": 6244,
      "гус": 6245,
      "геро": 6246,
      "гвардии": 6247,
      "др": 6248,
      "ды": 6249,
      "дни": 6250,
      "диз": 6251,
      "дим": 6252,
      "дают": 6253,
      "дист": 6254,
      "даты": 6255,
      "дону": 6256,
      "днр": 6257,
      "ех": 6258,
      "еда": 6259,
      "езд": 6260,
      "елена": 6261,
      "енис": 6262,
      "жд": 6263,
      "жом": 6264,
      "жуков": 6265,
      "зон": 6266,
      "знали": 6267,
      "ира": 6268,
      "ими": 6269,
      "ирк": 6270,
      "ирина": 6271,
      "кей": 6272,
      "кали": 6273,
      "ква": 6274,
      "кана": 6275,
      "кура": 6276,
      "кдк": 6277,
      "лан": 6278,
      "лин": 6279,
      "лим": 6280,
      "лик": 6281,
      "лиха": 6282,
      "мю": 6283,
      "мани": 6284,
      "мам": 6285,
      "мах": 6286,
      "мая": 6287,
      "меру": 6288,
      "мороз": 6289,
      "нд": 6290,
      "ну": 6291,
      "нан": 6292,
      "низ": 6293,
      "нрав": 6294,
      "ниб": 6295,
      "ом": 6296,
      "ока": 6297,
      "остан": 6298,
      "ошел": 6299,
      "ошт": 6300,
      "олег": 6301,
      "пп": 6302,
      "пат": 6303,
      "пента": 6304,
      "рат": 6305,
      "ротов": 6306,
      "сю": 6307,
      "сэ": 6308,
      "сел": 6309,
      "сор": 6310,
      "ссс": 6311,
      "сла": 6312,
      "сид": 6313,
      "сай": 6314,
      "сих": 6315,
      "сним": 6316,
      "сме": 6317,
      "смож": 6318,
      "смот": 6319,
      "сева": 6320,
      "себ": 6321,
      "тв": 6322,
      "т2": 6323,
      "тол": 6324,
      "тоб": 6325,
      "тих": 6326,
      "тенг": 6327,
      "титу": 6328,
      "трев": 6329,
      "татья": 6330,
      "тывы": 6331,
      "ур": 6332,
      "уро": 6333,
      "уме": 6334,
      "уяз": 6335,
      "учит": 6336,
      "уех": 6337,
      "урал": 6338,
      "уходит": 6339,
      "уйдет": 6340,
      "фа": 6341,
      "фо": 6342,
      "фом": 6343,
      "фраз": 6344,
      "филь": 6345,
      "хол": 6346,
      "хег": 6347,
      "хаб": 6348,
      "харь": 6349,
      "ценных": 6350,
      "чист": 6351,
      "чате": 6352,
      "шри": 6353,
      "шам": 6354,
      "швед": 6355,
      "эти": 6356,
      "юни": 6357,
      "юна": 6358,
      "юрия": 6359,
      "як": 6360,
      "##ес": 6361,
      "##его": 6362,
      "##дол": 6363,
      "##драт": 6364,
      "##дской": 6365,
      "##длов": 6366,
      "##динг": 6367,
      "##драть": 6368,
      "##дзе": 6369,
      "##рении": 6370,
      "##асс": 6371,
      "##арив": 6372,
      "##лэ": 6373,
      "##лер": 6374,
      "##лит": 6375,
      "##лан": 6376,
      "##лель": 6377,
      "##лтан": 6378,
      "##нь": 6379,
      "##нс": 6380,
      "##нет": 6381,
      "##нан": 6382,
      "##нать": 6383,
      "##нной": 6384,
      "##нала": 6385,
      "##нду": 6386,
      "##нется": 6387,
      "##ыл": 6388,
      "##ыта": 6389,
      "##йдут": 6390,
      "##оре": 6391,
      "##оев": 6392,
      "##онии": 6393,
      "##оох": 6394,
      "##тс": 6395,
      "##цз": 6396,
      "##ией": 6397,
      "##ико": 6398,
      "##ираться": 6399,
      "##мз": 6400,
      "##мэ": 6401,
      "##мую": 6402,
      "##много": 6403,
      "##май": 6404,
      "##мана": 6405,
      "##мовые": 6406,
      "##кс": 6407,
      "##кх": 6408,
      "##кол": 6409,
      "##кред": 6410,
      "##ключ": 6411,
      "##колов": 6412,
      "##кварти": 6413,
      "##канец": 6414,
      "##уре": 6415,
      "##уйте": 6416,
      "##фран": 6417,
      "##фина": 6418,
      "##фику": 6419,
      "##фиц": 6420,
      "##яр": 6421,
      "##яя": 6422,
      "##яем": 6423,
      "##ято": 6424,
      "##ящее": 6425,
      "##зя": 6426,
      "##зав": 6427,
      "##зию": 6428,
      "##зелен": 6429,
      "##ву": 6430,
      "##вал": 6431,
      "##вое": 6432,
      "##виг": 6433,
      "##сит": 6434,
      "##син": 6435,
      "##сной": 6436,
      "##сев": 6437,
      "##сек": 6438,
      "##чки": 6439,
      "##чков": 6440,
      "##чай": 6441,
      "##чности": 6442,
      "##чное": 6443,
      "##чок": 6444,
      "##гал": 6445,
      "##гиз": 6446,
      "##ганд": 6447,
      "##голет": 6448,
      "##гивает": 6449,
      "##горь": 6450,
      "##гскому": 6451,
      "##гард": 6452,
      "##пот": 6453,
      "##пря": 6454,
      "##пере": 6455,
      "##пенно": 6456,
      "##хов": 6457,
      "##хам": 6458,
      "##хгал": 6459,
      "##жется": 6460,
      "##щения": 6461,
      "##щая": 6462,
      "##бил": 6463,
      "##бин": 6464,
      "##бив": 6465,
      "##бло": 6466,
      "##боль": 6467,
      "##биль": 6468,
      "##бекин": 6469,
      "##шин": 6470,
      "##шель": 6471,
      "##шать": 6472,
      "##шня": 6473,
      "##энер": 6474,
      "##ъяли": 6475,
      "##енам": 6476,
      "##стил": 6477,
      "##стей": 6478,
      "##овер": 6479,
      "##овом": 6480,
      "##овое": 6481,
      "##овым": 6482,
      "##оввед": 6483,
      "##овыми": 6484,
      "##рашив": 6485,
      "##нола": 6486,
      "##номо": 6487,
      "##ностро": 6488,
      "##носим": 6489,
      "##носят": 6490,
      "##нив": 6491,
      "##ерф": 6492,
      "##ерг": 6493,
      "##ерия": 6494,
      "##ерых": 6495,
      "##ерное": 6496,
      "##еруп": 6497,
      "##ерии": 6498,
      "##ету": 6499,
      "##етбол": 6500,
      "##рок": 6501,
      "##рог": 6502,
      "##алон": 6503,
      "##итых": 6504,
      "##итованных": 6505,
      "##елей": 6506,
      "пото": 6507,
      "поме": 6508,
      "попу": 6509,
      "погранич": 6510,
      "пошел": 6511,
      "поляр": 6512,
      "поехать": 6513,
      "помут": 6514,
      "##рея": 6515,
      "##рест": 6516,
      "##ску": 6517,
      "##скетбол": 6518,
      "##атл": 6519,
      "##аторы": 6520,
      "##аторами": 6521,
      "##енил": 6522,
      "##орд": 6523,
      "##орг": 6524,
      "##орим": 6525,
      "##оргов": 6526,
      "##орди": 6527,
      "##орную": 6528,
      "##оррект": 6529,
      "##анской": 6530,
      "##андер": 6531,
      "##анная": 6532,
      "##ангард": 6533,
      "##иле": 6534,
      "##иля": 6535,
      "##одед": 6536,
      "##олам": 6537,
      "##олномо": 6538,
      "##оть": 6539,
      "##рид": 6540,
      "##рир": 6541,
      "##рин": 6542,
      "##гора": 6543,
      "##государ": 6544,
      "##цио": 6545,
      "заку": 6546,
      "заправ": 6547,
      "зачаст": 6548,
      "зареги": 6549,
      "займ": 6550,
      "##онез": 6551,
      "##ствует": 6552,
      "##ствуют": 6553,
      "##ствием": 6554,
      "##ствовали": 6555,
      "##ссейн": 6556,
      "##кай": 6557,
      "##инка": 6558,
      "##инут": 6559,
      "##инам": 6560,
      "##интегра": 6561,
      "сопер": 6562,
      "соколов": 6563,
      "сопря": 6564,
      "##анит": 6565,
      "##аним": 6566,
      "##анили": 6567,
      "##едко": 6568,
      "##еджера": 6569,
      "##мия": 6570,
      "пройти": 6571,
      "проук": 6572,
      "пройдут": 6573,
      "наступ": 6574,
      "наших": 6575,
      "найти": 6576,
      "нахождения": 6577,
      "найт": 6578,
      "наверное": 6579,
      "##лава": 6580,
      "##лаясь": 6581,
      "##кистаном": 6582,
      "##кто": 6583,
      "префер": 6584,
      "прешов": 6585,
      "##еме": 6586,
      "##емь": 6587,
      "##емся": 6588,
      "##ивной": 6589,
      "стив": 6590,
      "стам": 6591,
      "стала": 6592,
      "стере": 6593,
      "стены": 6594,
      "стату": 6595,
      "стрих": 6596,
      "оба": 6597,
      "обли": 6598,
      "обход": 6599,
      "обоз": 6600,
      "обус": 6601,
      "общего": 6602,
      "обещ": 6603,
      "оборон": 6604,
      "обжал": 6605,
      "обойти": 6606,
      "##ельная": 6607,
      "##ельщиков": 6608,
      "##ениям": 6609,
      "##стика": 6610,
      "##стимо": 6611,
      "##стимулят": 6612,
      "##нав": 6613,
      "##назнач": 6614,
      "отв": 6615,
      "отраз": 6616,
      "отту": 6617,
      "вообщ": 6618,
      "вошли": 6619,
      "ворот": 6620,
      "реп": 6621,
      "реки": 6622,
      "реак": 6623,
      "реакт": 6624,
      "реальный": 6625,
      "реагиров": 6626,
      "вылов": 6627,
      "выкуп": 6628,
      "выпла": 6629,
      "прият": 6630,
      "прине": 6631,
      "причи": 6632,
      "призов": 6633,
      "приступ": 6634,
      "привет": 6635,
      "природ": 6636,
      "приготов": 6637,
      "причины": 6638,
      "##ческого": 6639,
      "##чевы": 6640,
      "##честер": 6641,
      "##утской": 6642,
      "##спорта": 6643,
      "##того": 6644,
      "##ково": 6645,
      "##ковской": 6646,
      "коммер": 6647,
      "##гию": 6648,
      "##гировать": 6649,
      "##арный": 6650,
      "##альном": 6651,
      "неги": 6652,
      "нераз": 6653,
      "неста": 6654,
      "небо": 6655,
      "неболь": 6656,
      "##акан": 6657,
      "##акина": 6658,
      "подроб": 6659,
      "##локации": 6660,
      "##жду": 6661,
      "##ждений": 6662,
      "##жденные": 6663,
      "##ряв": 6664,
      "##ряду": 6665,
      "##иды": 6666,
      "##идел": 6667,
      "##иденци": 6668,
      "предла": 6669,
      "предмет": 6670,
      "предельного": 6671,
      "предназнач": 6672,
      "##нера": 6673,
      "##имент": 6674,
      "##имый": 6675,
      "##естру": 6676,
      "##лью": 6677,
      "##льный": 6678,
      "##илия": 6679,
      "разд": 6680,
      "разной": 6681,
      "разлож": 6682,
      "разрыв": 6683,
      "разряд": 6684,
      "размещ": 6685,
      "разрабат": 6686,
      "свс": 6687,
      "свод": 6688,
      "конс": 6689,
      "кондрать": 6690,
      "инспект": 6691,
      "##кораб": 6692,
      "##удь": 6693,
      "##удит": 6694,
      "##олько": 6695,
      "которую": 6696,
      "сообщали": 6697,
      "сообщают": 6698,
      "сообщалось": 6699,
      "##ходить": 6700,
      "##лянд": 6701,
      "##ительность": 6702,
      "##ительная": 6703,
      "док": 6704,
      "доп": 6705,
      "доход": 6706,
      "дозах": 6707,
      "доходы": 6708,
      "споров": 6709,
      "спарт": 6710,
      "спас": 6711,
      "спуст": 6712,
      "##час": 6713,
      "##часа": 6714,
      "##ранения": 6715,
      "##суков": 6716,
      "моей": 6717,
      "могу": 6718,
      "возд": 6719,
      "новик": 6720,
      "новому": 6721,
      "новость": 6722,
      "нововвед": 6723,
      "##бке": 6724,
      "##аниями": 6725,
      "##стопол": 6726,
      "##ываться": 6727,
      "измер": 6728,
      "излож": 6729,
      "избеж": 6730,
      "измай": 6731,
      "изъяли": 6732,
      "##ботки": 6733,
      "которыми": 6734,
      "мичков": 6735,
      "кап": 6736,
      "каких": 6737,
      "##езли": 6738,
      "##езде": 6739,
      "##урмовые": 6740,
      "такую": 6741,
      "##ерации": 6742,
      "заявив": 6743,
      "##айтесь": 6744,
      "##ственной": 6745,
      "опров": 6746,
      "оперуп": 6747,
      "##ацией": 6748,
      "##ечник": 6749,
      "нож": 6750,
      "ножи": 6751,
      "##таз": 6752,
      "##таж": 6753,
      "##тами": 6754,
      "гоа": 6755,
      "##окой": 6756,
      "визой": 6757,
      "работал": 6758,
      "работой": 6759,
      "лиге": 6760,
      "укрепл": 6761,
      "полуфин": 6762,
      "оде": 6763,
      "##нова": 6764,
      "слуш": 6765,
      "случай": 6766,
      "сама": 6767,
      "самая": 6768,
      "самолета": 6769,
      "летней": 6770,
      "провал": 6771,
      "провела": 6772,
      "##ическими": 6773,
      "запечат": 6774,
      "заплани": 6775,
      "##няли": 6776,
      "авангард": 6777,
      "##гаро": 6778,
      "##ированных": 6779,
      "двой": 6780,
      "делают": 6781,
      "деловые": 6782,
      "##ательным": 6783,
      "получила": 6784,
      "получило": 6785,
      "полученных": 6786,
      "получилось": 6787,
      "правовой": 6788,
      "правоза": 6789,
      "часа": 6790,
      "испании": 6791,
      "теку": 6792,
      "тебе": 6793,
      "тебекин": 6794,
      "евроинтегра": 6795,
      "##нус": 6796,
      "начало": 6797,
      "началось": 6798,
      "суще": 6799,
      "султан": 6800,
      "##цепов": 6801,
      "дефиц": 6802,
      "границе": 6803,
      "следственное": 6804,
      "тело": 6805,
      "##вающий": 6806,
      "##вагон": 6807,
      "будем": 6808,
      "##ющей": 6809,
      "##ющая": 6810,
      "##нится": 6811,
      "такт": 6812,
      "##олока": 6813,
      "пари": 6814,
      "паров": 6815,
      "парал": 6816,
      "паспорт": 6817,
      "данный": 6818,
      "совпа": 6819,
      "##редоточ": 6820,
      "вас": 6821,
      "ваших": 6822,
      "полка": 6823,
      "полного": 6824,
      "полном": 6825,
      "полчаса": 6826,
      "повре": 6827,
      "поврежд": 6828,
      "повлиять": 6829,
      "##ерее": 6830,
      "руководства": 6831,
      "сбу": 6832,
      "сбора": 6833,
      "##рите": 6834,
      "андж": 6835,
      "англи": 6836,
      "ангаро": 6837,
      "влад": 6838,
      "владел": 6839,
      "владе": 6840,
      "властей": 6841,
      "экс": 6842,
      "экологиче": 6843,
      "судь": 6844,
      "судя": 6845,
      "судне": 6846,
      "судеб": 6847,
      "украинской": 6848,
      "украинским": 6849,
      "украинскому": 6850,
      "местного": 6851,
      "местности": 6852,
      "местонах": 6853,
      "развивает": 6854,
      "решили": 6855,
      "решению": 6856,
      "перепи": 6857,
      "перехват": 6858,
      "##агности": 6859,
      "##стрее": 6860,
      "##получ": 6861,
      "расхождения": 6862,
      "расходов": 6863,
      "соблюд": 6864,
      "собирается": 6865,
      "выдавали": 6866,
      "связях": 6867,
      "связано": 6868,
      "связанных": 6869,
      "##иция": 6870,
      "термин": 6871,
      "оклад": 6872,
      "окрест": 6873,
      "##шеную": 6874,
      "соглашений": 6875,
      "диагности": 6876,
      "контейне": 6877,
      "генасс": 6878,
      "городу": 6879,
      "платы": 6880,
      "основан": 6881,
      "основой": 6882,
      "основано": 6883,
      "больнице": 6884,
      "##ателю": 6885,
      "##ателями": 6886,
      "облаков": 6887,
      "интерф": 6888,
      "результатах": 6889,
      "матвей": 6890,
      "возможно": 6891,
      "возможные": 6892,
      "возможным": 6893,
      "противомин": 6894,
      "исков": 6895,
      "искандер": 6896,
      "##шир": 6897,
      "##ностях": 6898,
      "сказать": 6899,
      "##становленными": 6900,
      "продемон": 6901,
      "отношений": 6902,
      "баш": 6903,
      "баки": 6904,
      "база": 6905,
      "базе": 6906,
      "баскетбол": 6907,
      "америки": 6908,
      "добиваться": 6909,
      "##осторож": 6910,
      "пусть": 6911,
      "пусты": 6912,
      "пушкин": 6913,
      "скрыт": 6914,
      "скоррект": 6915,
      "составил": 6916,
      "составят": 6917,
      "составля": 6918,
      "составила": 6919,
      "развитии": 6920,
      "белгород": 6921,
      "ограничение": 6922,
      "ограничить": 6923,
      "ограниченное": 6924,
      "родителя": 6925,
      "родители": 6926,
      "родчен": 6927,
      "среднем": 6928,
      "психо": 6929,
      "отметки": 6930,
      "отметила": 6931,
      "месяцы": 6932,
      "крисев": 6933,
      "видно": 6934,
      "видел": 6935,
      "видим": 6936,
      "домах": 6937,
      "домодед": 6938,
      "многокварти": 6939,
      "недоволь": 6940,
      "недвиж": 6941,
      "серд": 6942,
      "серии": 6943,
      "серти": 6944,
      "серию": 6945,
      "серге": 6946,
      "турция": 6947,
      "турцией": 6948,
      "турпот": 6949,
      "покинут": 6950,
      "помогут": 6951,
      "помочь": 6952,
      "задержании": 6953,
      "армия": 6954,
      "минск": 6955,
      "минфина": 6956,
      "центром": 6957,
      "направили": 6958,
      "направля": 6959,
      "направлены": 6960,
      "##давайте": 6961,
      "ответы": 6962,
      "ответить": 6963,
      "считать": 6964,
      "считали": 6965,
      "считается": 6966,
      "##защит": 6967,
      "находившихся": 6968,
      "которому": 6969,
      "признан": 6970,
      "крупный": 6971,
      "крупном": 6972,
      "крупными": 6973,
      "очко": 6974,
      "счета": 6975,
      "проектов": 6976,
      "проектами": 6977,
      "конфрон": 6978,
      "конфиденци": 6979,
      "гражданского": 6980,
      "группу": 6981,
      "финлянд": 6982,
      "##варда": 6983,
      "##ализации": 6984,
      "командой": 6985,
      "поддержать": 6986,
      "упавшего": 6987,
      "экспоз": 6988,
      "игоря": 6989,
      "офиц": 6990,
      "указывает": 6991,
      "лично": 6992,
      "личной": 6993,
      "личности": 6994,
      "проверка": 6995,
      "туринду": 6996,
      "организаторами": 6997,
      "марк": 6998,
      "##рополь": 6999,
      "регион": 7000,
      "москви": 7001,
      "##ездой": 7002,
      "запретил": 7003,
      "ведение": 7004,
      "ведется": 7005,
      "целями": 7006,
      "##янь": 7007,
      "##янц": 7008,
      "распор": 7009,
      "расправ": 7010,
      "располо": 7011,
      "условно": 7012,
      "продолжить": 7013,
      "вести": 7014,
      "каждой": 7015,
      "использовали": 7016,
      "использованием": 7017,
      "петербургу": 7018,
      "петербуржец": 7019,
      "воды": 7020,
      "воду": 7021,
      "##ифициров": 7022,
      "ракетный": 7023,
      "акит": 7024,
      "аккред": 7025,
      "источником": 7026,
      "##ируют": 7027,
      "потребует": 7028,
      "потребностей": 7029,
      "детали": 7030,
      "детьми": 7031,
      "доля": 7032,
      "кишин": 7033,
      "луис": 7034,
      "семья": 7035,
      "семерых": 7036,
      "##адут": 7037,
      "##блей": 7038,
      "называют": 7039,
      "общения": 7040,
      "общий": 7041,
      "концеп": 7042,
      "мотивировать": 7043,
      "лидера": 7044,
      "ссылаясь": 7045,
      "занималась": 7046,
      "создан": 7047,
      "перевед": 7048,
      "свободу": 7049,
      "свободную": 7050,
      "операция": 7051,
      "случаи": 7052,
      "частую": 7053,
      "частным": 7054,
      "частную": 7055,
      "резервистом": 7056,
      "экономика": 7057,
      "экономики": 7058,
      "экономику": 7059,
      "активно": 7060,
      "богом": 7061,
      "гашеную": 7062,
      "готова": 7063,
      "готовит": 7064,
      "готовности": 7065,
      "готовность": 7066,
      "готовятся": 7067,
      "готовящ": 7068,
      "показатель": 7069,
      "показалось": 7070,
      "показателей": 7071,
      "высот": 7072,
      "выбира": 7073,
      "выборах": 7074,
      "члену": 7075,
      "##ничестве": 7076,
      "объявлена": 7077,
      "важным": 7078,
      "людской": 7079,
      "обвиняли": 7080,
      "рич": 7081,
      "##йтесь": 7082,
      "замеч": 7083,
      "заммэ": 7084,
      "заманили": 7085,
      "состояние": 7086,
      "состоялось": 7087,
      "состоялась": 7088,
      "заключения": 7089,
      "заключение": 7090,
      "заключить": 7091,
      "уголовные": 7092,
      "квот": 7093,
      "пегу": 7094,
      "установили": 7095,
      "установок": 7096,
      "установлению": 7097,
      "поблагодар": 7098,
      "строгие": 7099,
      "большое": 7100,
      "супруже": 7101,
      "супругу": 7102,
      "затруд": 7103,
      "затяж": 7104,
      "имел": 7105,
      "имели": 7106,
      "имеющих": 7107,
      "имеющим": 7108,
      "требуется": 7109,
      "##ающей": 7110,
      "##ающую": 7111,
      "##ающим": 7112,
      "стоимости": 7113,
      "##лично": 7114,
      "росави": 7115,
      "привле": 7116,
      "привиле": 7117,
      "добавляет": 7118,
      "европейцы": 7119,
      "налоговым": 7120,
      "республиканец": 7121,
      "системе": 7122,
      "обеспечив": 7123,
      "обеспечивать": 7124,
      "бук": 7125,
      "буря": 7126,
      "бухгал": 7127,
      "остались": 7128,
      "остаются": 7129,
      "остальных": 7130,
      "оказалась": 7131,
      "форма": 7132,
      "формы": 7133,
      "формат": 7134,
      "хотел": 7135,
      "хотят": 7136,
      "поставку": 7137,
      "забрал": 7138,
      "забросили": 7139,
      "заболев": 7140,
      "сталкив": 7141,
      "статьи": 7142,
      "режимы": 7143,
      "режиму": 7144,
      "##чевских": 7145,
      "стратегию": 7146,
      "испытатель": 7147,
      "политиков": 7148,
      "главной": 7149,
      "главным": 7150,
      "молодой": 7151,
      "исход": 7152,
      "исландия": 7153,
      "сложно": 7154,
      "сложным": 7155,
      "отрасль": 7156,
      "выполнит": 7157,
      "выполнения": 7158,
      "способно": 7159,
      "способны": 7160,
      "способствовать": 7161,
      "запрещенному": 7162,
      "голами": 7163,
      "звездой": 7164,
      "июля": 7165,
      "романт": 7166,
      "содействие": 7167,
      "трудно": 7168,
      "штурмовые": 7169,
      "##ериев": 7170,
      "профиль": 7171,
      "индик": 7172,
      "индонез": 7173,
      "измене": 7174,
      "изменить": 7175,
      "проведении": 7176,
      "любой": 7177,
      "любую": 7178,
      "внутренним": 7179,
      "внутренние": 7180,
      "вишня": 7181,
      "войне": 7182,
      "влияния": 7183,
      "коуч": 7184,
      "корее": 7185,
      "координ": 7186,
      "меди": 7187,
      "этап": 7188,
      "этанола": 7189,
      "ядерные": 7190,
      "##женность": 7191,
      "заверили": 7192,
      "разработки": 7193,
      "разработке": 7194,
      "определите": 7195,
      "аэрод": 7196,
      "знаю": 7197,
      "немец": 7198,
      "шагал": 7199,
      "##рочку": 7200,
      "назвали": 7201,
      "отправили": 7202,
      "казахстаном": 7203,
      "##стройки": 7204,
      "##стройства": 7205,
      "технологии": 7206,
      "государственным": 7207,
      "победа": 7208,
      "процессы": 7209,
      "процессах": 7210,
      "дополнительно": 7211,
      "дополнительных": 7212,
      "введения": 7213,
      "введенные": 7214,
      "смог": 7215,
      "обязательно": 7216,
      "принимал": 7217,
      "приниматься": 7218,
      "командир": 7219,
      "воздух": 7220,
      "проводить": 7221,
      "своими": 7222,
      "собственного": 7223,
      "директоров": 7224,
      "турнирах": 7225,
      "пострадавшие": 7226,
      "пострадавшая": 7227,
      "были": 7228,
      "быстрее": 7229,
      "морских": 7230,
      "пакш": 7231,
      "рейсов": 7232,
      "форума": 7233,
      "цифра": 7234,
      "##аемые": 7235,
      "попал": 7236,
      "попали": 7237,
      "завели": 7238,
      "завоев": 7239,
      "отсидел": 7240,
      "отдельное": 7241,
      "вооружение": 7242,
      "ресурс": 7243,
      "ресурсами": 7244,
      "несо": 7245,
      "несет": 7246,
      "особен": 7247,
      "будущего": 7248,
      "будущем": 7249,
      "совершение": 7250,
      "сборную": 7251,
      "экономический": 7252,
      "экономическим": 7253,
      "торгового": 7254,
      "торговых": 7255,
      "пункты": 7256,
      "джон": 7257,
      "джоб": 7258,
      "джоли": 7259,
      "играет": 7260,
      "ключевы": 7261,
      "никто": 7262,
      "плох": 7263,
      "тренера": 7264,
      "тренером": 7265,
      "##нинкай": 7266,
      "похож": 7267,
      "покупки": 7268,
      "созн": 7269,
      "созда": 7270,
      "преступники": 7271,
      "преступлению": 7272,
      "обратно": 7273,
      "обратной": 7274,
      "обратились": 7275,
      "обратилась": 7276,
      "обсуждение": 7277,
      "росту": 7278,
      "ростом": 7279,
      "выходным": 7280,
      "нефте": 7281,
      "предоставлении": 7282,
      "однознач": 7283,
      "однокомнат": 7284,
      "авиационный": 7285,
      "передачами": 7286,
      "контракта": 7287,
      "участников": 7288,
      "участниками": 7289,
      "достигает": 7290,
      "дрон": 7291,
      "дрона": 7292,
      "история": 7293,
      "критически": 7294,
      "критической": 7295,
      "критериев": 7296,
      "лучший": 7297,
      "лучшим": 7298,
      "множе": 7299,
      "многих": 7300,
      "многолет": 7301,
      "национальных": 7302,
      "принадле": 7303,
      "подразум": 7304,
      "подписали": 7305,
      "подписывает": 7306,
      "лицен": 7307,
      "территория": 7308,
      "финансовой": 7309,
      "беспилотники": 7310,
      "законодательстве": 7311,
      "транспортом": 7312,
      "транспортной": 7313,
      "транспортная": 7314,
      "воздушных": 7315,
      "иностранным": 7316,
      "ассорт": 7317,
      "банк": 7318,
      "идею": 7319,
      "предусматри": 7320,
      "операторов": 7321,
      "законно": 7322,
      "законные": 7323,
      "включать": 7324,
      "включить": 7325,
      "участвующих": 7326,
      "экспертов": 7327,
      "энергетическим": 7328,
      "позиций": 7329,
      "наркоторгов": 7330,
      "инициативу": 7331,
      "арекол": 7332,
      "вниманием": 7333,
      "временем": 7334,
      "занято": 7335,
      "клубов": 7336,
      "портал": 7337,
      "программе": 7338,
      "программу": 7339,
      "программного": 7340,
      "ставок": 7341,
      "ставрополь": 7342,
      "разрешение": 7343,
      "инвестиции": 7344,
      "инвестиционные": 7345,
      "самолеты": 7346,
      "оценить": 7347,
      "оценку": 7348,
      "оценке": 7349,
      "максимально": 7350,
      "баланс": 7351,
      "кубке": 7352,
      "менеджера": 7353,
      "оружием": 7354,
      "сферах": 7355,
      "успенов": 7356,
      "ценным": 7357,
      "рабочую": 7358,
      "выдана": 7359,
      "выданных": 7360,
      "доставить": 7361,
      "известь": 7362,
      "объясняется": 7363,
      "угрозу": 7364,
      "энергос": 7365,
      "требовали": 7366,
      "сохранения": 7367,
      "сохранение": 7368,
      "сохраняется": 7369,
      "сохраняют": 7370,
      "венесуэла": 7371,
      "очередной": 7372,
      "борьбу": 7373,
      "борьбе": 7374,
      "даст": 7375,
      "модифика": 7376,
      "смс": 7377,
      "скажут": 7378,
      "скачок": 7379,
      "утра": 7380,
      "утер": 7381,
      "утрат": 7382,
      "пожал": 7383,
      "комиссию": 7384,
      "частью": 7385,
      "материале": 7386,
      "участием": 7387,
      "семьей": 7388,
      "криптоперев": 7389,
      "вступление": 7390,
      "давно": 7391,
      "давайте": 7392,
      "давления": 7393,
      "давление": 7394,
      "прилет": 7395,
      "##ченным": 7396,
      "##ченко": 7397,
      "появится": 7398,
      "социальных": 7399,
      "социалистиче": 7400,
      "состоит": 7401,
      "состояться": 7402,
      "прогресс": 7403,
      "нарушает": 7404,
      "восполь": 7405,
      "призвать": 7406,
      "предварительно": 7407,
      "возникла": 7408,
      "усилить": 7409,
      "интересах": 7410,
      "цифрового": 7411,
      "цифровых": 7412,
      "содержится": 7413,
      "оперативные": 7414,
      "профессионального": 7415,
      "профессиональный": 7416,
      "опубликовал": 7417,
      "опубликована": 7418,
      "бетельный": 7419,
      "валют": 7420,
      "валуй": 7421,
      "единую": 7422,
      "карьере": 7423,
      "мобилизации": 7424,
      "сильный": 7425,
      "продуктив": 7426,
      "наград": 7427,
      "навыками": 7428,
      "разбивший": 7429,
      "возбуждение": 7430,
      "касается": 7431,
      "странами": 7432,
      "магнус": 7433,
      "августа": 7434,
      "двигатель": 7435,
      "двигателей": 7436,
      "объединяет": 7437,
      "объединенной": 7438,
      "##мышленном": 7439,
      "четверт": 7440,
      "четвертое": 7441,
      "покровск": 7442,
      "покровска": 7443,
      "покровске": 7444,
      "близость": 7445,
      "оценила": 7446,
      "некоторым": 7447,
      "некоторых": 7448,
      "грузового": 7449,
      "грузовиков": 7450,
      "болельщиков": 7451,
      "въезда": 7452,
      "внес": 7453,
      "внести": 7454,
      "никита": 7455,
      "оставить": 7456,
      "оставили": 7457,
      "сути": 7458,
      "сутки": 7459,
      "хатте": 7460,
      "растение": 7461,
      "союзников": 7462,
      "просьбу": 7463,
      "восемь": 7464,
      "автопром": 7465,
      "октябрьской": 7466,
      "парад": 7467,
      "убеждения": 7468,
      "рассмотреть": 7469,
      "искусства": 7470,
      "искусство": 7471,
      "искусственный": 7472,
      "коллектив": 7473,
      "коллегами": 7474,
      "недостовер": 7475,
      "помогали": 7476,
      "автомобиля": 7477,
      "автомобилях": 7478,
      "испытаниям": 7479,
      "подозреваемый": 7480,
      "попытка": 7481,
      "журналисты": 7482,
      "тяжелые": 7483,
      "бывшего": 7484,
      "кремль": 7485,
      "никаких": 7486,
      "никакого": 7487,
      "ожидают": 7488,
      "пенсии": 7489,
      "тамож": 7490,
      "уметь": 7491,
      "умвд": 7492,
      "устройств": 7493,
      "устройство": 7494,
      "заработной": 7495,
      "заработок": 7496,
      "отделения": 7497,
      "высказывать": 7498,
      "концу": 7499,
      "концерн": 7500,
      "миграционные": 7501,
      "опытом": 7502,
      "расследованию": 7503,
      "назначен": 7504,
      "высокий": 7505,
      "высокоп": 7506,
      "приняты": 7507,
      "выполнять": 7508,
      "выполнению": 7509,
      "индивидуально": 7510,
      "индивидуальные": 7511,
      "знакомого": 7512,
      "консульство": 7513,
      "рядом": 7514,
      "маркетплейсов": 7515,
      "распространяться": 7516,
      "урегулировании": 7517,
      "бюро": 7518,
      "мобильных": 7519,
      "мобильного": 7520,
      "номеров": 7521,
      "северо": 7522,
      "танков": 7523,
      "танковой": 7524,
      "чиновник": 7525,
      "чиновников": 7526,
      "шипп": 7527,
      "радиолока": 7528,
      "стимулировать": 7529,
      "предупрежд": 7530,
      "предупредил": 7531,
      "председателя": 7532,
      "свердлов": 7533,
      "московской": 7534,
      "московского": 7535,
      "машин": 7536,
      "машиностро": 7537,
      "повышения": 7538,
      "повышен": 7539,
      "потерп": 7540,
      "словаки": 7541,
      "офисе": 7542,
      "офиса": 7543,
      "атаку": 7544,
      "петербургского": 7545,
      "петербургский": 7546,
      "соответствующие": 7547,
      "финансировании": 7548,
      "стратегические": 7549,
      "стратегическим": 7550,
      "завершил": 7551,
      "отсутствия": 7552,
      "отсутствие": 7553,
      "отсутствии": 7554,
      "подтвердить": 7555,
      "нефтет": 7556,
      "менеджмент": 7557,
      "инфраструктура": 7558,
      "взаимодействие": 7559,
      "ошибки": 7560,
      "французской": 7561,
      "ужесточении": 7562,
      "абсол": 7563,
      "клиниче": 7564,
      "учебные": 7565,
      "чувствовать": 7566,
      "японии": 7567,
      "##елярии": 7568,
      "поиск": 7569,
      "поиска": 7570,
      "поиске": 7571,
      "порядке": 7572,
      "заводы": 7573,
      "раскры": 7574,
      "раскрыв": 7575,
      "проявлять": 7576,
      "народной": 7577,
      "реализации": 7578,
      "реализацию": 7579,
      "вызывать": 7580,
      "приостановить": 7581,
      "комфортное": 7582,
      "подобные": 7583,
      "различные": 7584,
      "спросите": 7585,
      "сумерек": 7586,
      "советов": 7587,
      "современные": 7588,
      "вариан": 7589,
      "повестку": 7590,
      "признакам": 7591,
      "окончания": 7592,
      "генштабе": 7593,
      "увольнения": 7594,
      "увольнении": 7595,
      "техническая": 7596,
      "пустили": 7597,
      "задержанного": 7598,
      "артур": 7599,
      "перевода": 7600,
      "перевозки": 7601,
      "необходимы": 7602,
      "необходимые": 7603,
      "блогеру": 7604,
      "значительных": 7605,
      "прокурор": 7606,
      "моряки": 7607,
      "совершенно": 7608,
      "похитители": 7609,
      "обсуждали": 7610,
      "дональдом": 7611,
      "арестовали": 7612,
      "процедура": 7613,
      "процедуры": 7614,
      "предприниматели": 7615,
      "сервисы": 7616,
      "сервисов": 7617,
      "биомет": 7618,
      "барба": 7619,
      "барсуков": 7620,
      "вдвое": 7621,
      "входят": 7622,
      "живу": 7623,
      "импорту": 7624,
      "импорто": 7625,
      "сейс": 7626,
      "сейчас": 7627,
      "тестовый": 7628,
      "уваж": 7629,
      "шарыпова": 7630,
      "полез": 7631,
      "законы": 7632,
      "законом": 7633,
      "закопали": 7634,
      "закупке": 7635,
      "преврат": 7636,
      "обстоятельств": 7637,
      "восток": 7638,
      "реклам": 7639,
      "перспективы": 7640,
      "пособничестве": 7641,
      "турец": 7642,
      "увидят": 7643,
      "увидеть": 7644,
      "рассчитывает": 7645,
      "спортсменов": 7646,
      "спортсменка": 7647,
      "крупнейших": 7648,
      "крупнейшей": 7649,
      "обвинили": 7650,
      "региональных": 7651,
      "квартала": 7652,
      "квартале": 7653,
      "электроники": 7654,
      "апреля": 7655,
      "дальнейшего": 7656,
      "камчатке": 7657,
      "формирований": 7658,
      "однократную": 7659,
      "узбекистаном": 7660,
      "арендовать": 7661,
      "доверие": 7662,
      "расширить": 7663,
      "магнитные": 7664,
      "магнитуд": 7665,
      "оценивают": 7666,
      "оценивается": 7667,
      "роботы": 7668,
      "роботами": 7669,
      "инструменты": 7670,
      "аналогичные": 7671,
      "долгосрочной": 7672,
      "спецслужбам": 7673,
      "ситилинка": 7674,
      "солнечных": 7675,
      "солнечной": 7676,
      "стабильность": 7677,
      "аморим": 7678,
      "бонус": 7679,
      "золот": 7680,
      "семи": 7681,
      "себе": 7682,
      "сменить": 7683,
      "сигнал": 7684,
      "сигналы": 7685,
      "тонн": 7686,
      "творчестве": 7687,
      "урановых": 7688,
      "устанавливает": 7689,
      "##йтед": 7690,
      "помещение": 7691,
      "помещений": 7692,
      "заместитель": 7693,
      "проживают": 7694,
      "выстраивать": 7695,
      "перверты": 7696,
      "негативно": 7697,
      "предъявили": 7698,
      "предъявлено": 7699,
      "капитаны": 7700,
      "заявителям": 7701,
      "межгосудар": 7702,
      "закрыл": 7703,
      "диалог": 7704,
      "диалога": 7705,
      "гражданин": 7706,
      "использует": 7707,
      "используем": 7708,
      "скорость": 7709,
      "серьезной": 7710,
      "бизнесменам": 7711,
      "рыбакина": 7712,
      "письмо": 7713,
      "выборгскому": 7714,
      "большинстве": 7715,
      "росликова": 7716,
      "купянска": 7717,
      "напрямую": 7718,
      "разрешили": 7719,
      "криптовалюты": 7720,
      "черномор": 7721,
      "школы": 7722,
      "продуктов": 7723,
      "швейцера": 7724,
      "осознает": 7725,
      "осознают": 7726,
      "ребенка": 7727,
      "внедрить": 7728,
      "функциони": 7729,
      "медицинских": 7730,
      "медицинскую": 7731,
      "обслуживания": 7732,
      "берут": 7733,
      "бельгий": 7734,
      "григорь": 7735,
      "дубль": 7736,
      "дубае": 7737,
      "иллю": 7738,
      "корабли": 7739,
      "кораблей": 7740,
      "уверенности": 7741,
      "шесть": 7742,
      "юрист": 7743,
      "постепенно": 7744,
      "##карты": 7745,
      "студия": 7746,
      "студии": 7747,
      "общества": 7748,
      "выводе": 7749,
      "выиграла": 7750,
      "персонала": 7751,
      "неуда": 7752,
      "неустановленными": 7753,
      "разряда": 7754,
      "разряду": 7755,
      "развернут": 7756,
      "конкур": 7757,
      "досрочно": 7758,
      "списка": 7759,
      "спутник": 7760,
      "спутников": 7761,
      "изменил": 7762,
      "военкоматы": 7763,
      "##оложил": 7764,
      "события": 7765,
      "дисквали": 7766,
      "противокораб": 7767,
      "недопу": 7768,
      "направлениям": 7769,
      "##ификацию": 7770,
      "произошедшего": 7771,
      "обыграл": 7772,
      "подозрению": 7773,
      "домашний": 7774,
      "возрастных": 7775,
      "фигуранты": 7776,
      "столкнов": 7777,
      "краснодарском": 7778,
      "карьерного": 7779,
      "сопровождении": 7780,
      "ахматов": 7781,
      "японского": 7782,
      "варианты": 7783,
      "традиционно": 7784,
      "эмоционального": 7785,
      "благополуч": 7786,
      "уничтожение": 7787,
      "галерее": 7788,
      "горячевских": 7789,
      "дисциплин": 7790,
      "дислокации": 7791,
      "джакарты": 7792,
      "жесткий": 7793,
      "леони": 7794,
      "мусорные": 7795,
      "химок": 7796,
      "полости": 7797,
      "полагают": 7798,
      "соединенные": 7799,
      "продавцов": 7800,
      "наконец": 7801,
      "препаратов": 7802,
      "обманным": 7803,
      "отбора": 7804,
      "выручкой": 7805,
      "переработки": 7806,
      "перенести": 7807,
      "возобновить": 7808,
      "новостройки": 7809,
      "гостевом": 7810,
      "суверенитета": 7811,
      "услуги": 7812,
      "трансформ": 7813,
      "прошедшие": 7814,
      "квалификации": 7815,
      "электронную": 7816,
      "формулы": 7817,
      "наблюдать": 7818,
      "аппараты": 7819,
      "классифициров": 7820,
      "происходящее": 7821,
      "исторической": 7822,
      "утверждали": 7823,
      "предусматривает": 7824,
      "пожизненного": 7825,
      "приложение": 7826,
      "масштабным": 7827,
      "германии": 7828,
      "нефтяных": 7829,
      "хоккейной": 7830,
      "экстремально": 7831,
      "экстремальные": 7832,
      "актрисы": 7833,
      "возглавлял": 7834,
      "возглавляющий": 7835,
      "иноагентов": 7836,
      "тысяч": 7837,
      "инновационного": 7838,
      "института": 7839,
      "оптимизацию": 7840,
      "петропавловка": 7841,
      "афри": 7842,
      "втб": 7843,
      "жилых": 7844,
      "линкеры": 7845,
      "нередко": 7846,
      "озера": 7847,
      "ощущ": 7848,
      "тексты": 7849,
      "удерживать": 7850,
      "уступил": 7851,
      "улететь": 7852,
      "фуцз": 7853,
      "хайят": 7854,
      "честь": 7855,
      "шанхай": 7856,
      "поручил": 7857,
      "зачистка": 7858,
      "сосредоточ": 7859,
      "репарационного": 7860,
      "присоеди": 7861,
      "придерживается": 7862,
      "персональ": 7863,
      "перейти": 7864,
      "неправом": 7865,
      "годовщ": 7866,
      "предполаг": 7867,
      "евгений": 7868,
      "провинции": 7869,
      "владельцев": 7870,
      "произведения": 7871,
      "округа": 7872,
      "дистанционной": 7873,
      "базовым": 7874,
      "двустороннего": 7875,
      "многоразовых": 7876,
      "численности": 7877,
      "упомяну": 7878,
      "эксплуатации": 7879,
      "деталями": 7880,
      "киргиз": 7881,
      "томагавк": 7882,
      "открыли": 7883,
      "будапешт": 7884,
      "голкипер": 7885,
      "содержащей": 7886,
      "напомнил": 7887,
      "ожоговый": 7888,
      "убеждал": 7889,
      "недостатки": 7890,
      "мероприятий": 7891,
      "глубине": 7892,
      "присутствовали": 7893,
      "окончательный": 7894,
      "локомотив": 7895,
      "госсекретаря": 7896,
      "олимпийских": 7897,
      "хозяйства": 7898,
      "брюссель": 7899,
      "сценарий": 7900,
      "коммуникации": 7901,
      "генпрокуратуру": 7902,
      "денежных": 7903,
      "кандидата": 7904,
      "серебря": 7905,
      "ухудш": 7906,
      "госкорпорация": 7907,
      "атрибутики": 7908,
      "бомбар": 7909,
      "вторич": 7910,
      "виновным": 7911,
      "грузию": 7912,
      "культуры": 7913,
      "манчестер": 7914,
      "неназв": 7915,
      "памят": 7916,
      "пациентов": 7917,
      "претен": 7918,
      "тахрир": 7919,
      "фиксиру": 7920,
      "хищения": 7921,
      "##эффектив": 7922,
      "##еррористиче": 7923,
      "попасть": 7924,
      "поправок": 7925,
      "застряв": 7926,
      "забыли": 7927,
      "зачислении": 7928,
      "рабоче": 7929,
      "преимущественно": 7930,
      "роспотреб": 7931,
      "отреагиров": 7932,
      "отчиталось": 7933,
      "воробьев": 7934,
      "репутацию": 7935,
      "выдержать": 7936,
      "вырастет": 7937,
      "приверженность": 7938,
      "комнаты": 7939,
      "комиссованы": 7940,
      "коннор": 7941,
      "допросе": 7942,
      "кафедры": 7943,
      "гостиница": 7944,
      "теорию": 7945,
      "сухери": 7946,
      "суицид": 7947,
      "деблокиров": 7948,
      "пасечник": 7949,
      "закрытого": 7950,
      "экскурсии": 7951,
      "челябин": 7952,
      "расстоянии": 7953,
      "друзьями": 7954,
      "телефона": 7955,
      "спекулировать": 7956,
      "канцелярии": 7957,
      "психотропных": 7958,
      "арсенал": 7959,
      "маршрут": 7960,
      "партией": 7961,
      "автоматически": 7962,
      "здравоох": 7963,
      "стоянку": 7964,
      "республиканца": 7965,
      "круглый": 7966,
      "населенного": 7967,
      "отслеживать": 7968,
      "джокович": 7969,
      "землетрясение": 7970,
      "защищаешь": 7971,
      "дроблением": 7972,
      "курилки": 7973,
      "куриловка": 7974,
      "исполнителями": 7975,
      "бригады": 7976,
      "путешествующих": 7977,
      "нейростимулят": 7978,
      "стефани": 7979,
      "возбудил": 7980,
      "гульяш": 7981,
      "косыгина": 7982,
      "ермак": 7983,
      "поощряйте": 7984,
      "авиакомпании": 7985,
      "господдержки": 7986,
      "мухин": 7987,
      "налогоплательщика": 7988,
      "биннингтон": 7989,
      "льготы": 7990,
      "лаборатории": 7991,
      "очевидно": 7992,
      "небезопасным": 7993,
      "бетеля": 7994,
      "бороться": 7995,
      "вячес": 7996,
      "вшэ": 7997,
      "вениамин": 7998,
      "вампи": 7999
    }
  }
}