{
  "version": "1.0",
  "truncation": null,
  "padding": null,
  "added_tokens": [
    {
      "id": 0,
      "content": "[UNK]",
      "single_word": false,
      "lstrip": false,
      "rstrip": false,
      "normalized": false,
      "special": true
    },
    {
      "id": 1,
      "content": "[PAD]",
      "single_word": false,
      "lstrip": false,
      "rstrip": false,
      "normalized": false,
      "special": true
    },
    {
      "id": 2,
      "content": "[BOS]",
      "single_word": false,
      "lstrip": false,
      "rstrip": false,
      "normalized": false,
      "special": true
    },
    {
      "id": 3,
      "content": "[EOS]",
      "single_word": false,
      "lstrip": false,
      "rstrip": false,
      "normalized": false,
      "special": true
    }
  ],
  "normalizer": null,
  "pre_tokenizer": {
    "type": "Whitespace"
  },
  "post_processor": null,
  "decoder": null,
  "model": {
    "type": "WordPiece",
    "unk_token": "[UNK]",
    "continuing_subword_prefix": "##",
    "max_input_chars_per_word": 100,
    "vocab": {
      "[UNK]": 0,
      "[PAD]": 1,
      "[BOS]": 2,
      "[EOS]": 3,
      "!": 4,
      "(": 5,
      ")": 6,
      ",": 7,
      "-": 8,
      ".": 9,
      "0": 10,
      "1": 11,
      "2": 12,
      "3": 13,
      "4": 14,
      "5": 15,
      "8": 16,
      ":": 17,
      "<": 18,
      ">": 19,
      "?": 20,
      "M": 21,
      "N": 22,
      "U": 23,
      "а": 24,
      "б": 25,
      "в": 26,
      "г": 27,
      "д": 28,
      "е": 29,
      "ж": 30,
      "з": 31,
      "и": 32,
      "й": 33,
      "к": 34,
      "л": 35,
      "м": 36,
      "н": 37,
      "о": 38,
      "п": 39,
      "р": 40,
      "с": 41,
      "т": 42,
      "у": 43,
      "ф": 44,
      "х": 45,
      "ц": 46,
      "ч": 47,
      "ш": 48,
      "щ": 49,
      "ъ": 50,
      "ы": 51,
      "ь": 52,
      "э": 53,
      "ю": 54,
      "я": 55,
      "ё": 56,
      "##т": 57,
      "##а": 58,
      "##б": 59,
      "##и": 60,
      "##л": 61,
      "##з": 62,
      "##ц": 63,
      "##о": 64,
      "##н": 65,
      "##у": 66,
      "##р": 67,
      "##е": 68,
      "##м": 69,
      "##с": 70,
      "##к": 71,
      "##й": 72,
      "##д": 73,
      "##ч": 74,
      "##п": 75,
      "##х": 76,
      "##в": 77,
      "##щ": 78,
      "##г": 79,
      "##ы": 80,
      "##я": 81,
      "##ь": 82,
      "##ю": 83,
      "##ж": 84,
      "##ш": 85,
      "##ф": 86,
      "##ъ": 87,
      "##э": 88,
      "##-": 89,
      "##8": 90,
      "##0": 91,
      "##)": 92,
      "##5": 93,
      "##<": 94,
      "##,": 95,
      "##2": 96,
      "##:": 97,
      "##.": 98,
      "##?": 99,
      "##4": 100,
      "##ё": 101,
      "##U": 102,
      "##M": 103,
      "##1": 104,
      "##ен": 105,
      "##ст": 106,
      "##ов": 107,
      "##ра": 108,
      "##но": 109,
      "##ни": 110,
      "##ер": 111,
      "##ет": 112,
      "##ро": 113,
      "##ны": 114,
      "##ал": 115,
      "##ит": 116,
      "##ел": 117,
      "по": 118,
      "##ре": 119,
      "##ск": 120,
      "##ат": 121,
      "NU": 122,
      "NUM": 123,
      "##ени": 124,
      "##ом": 125,
      "##ор": 126,
      "##ан": 127,
      "##ил": 128,
      "##од": 129,
      "##ол": 130,
      "##от": 131,
      "##ри": 132,
      "##го": 133,
      "##ци": 134,
      "за": 135,
      "##он": 136,
      "##ств": 137,
      "##сс": 138,
      "##ка": 139,
      "##ся": 140,
      "ра": 141,
      "##ин": 142,
      "##ру": 143,
      "со": 144,
      "##ани": 145,
      "##ей": 146,
      "##ед": 147,
      "##ми": 148,
      "про": 149,
      "на": 150,
      "##ла": 151,
      "##об": 152,
      "##ки": 153,
      "##кт": 154,
      "пре": 155,
      "##ем": 156,
      "##ив": 157,
      "ст": 158,
      "##ой": 159,
      "##ров": 160,
      "об": 161,
      "##сси": 162,
      "##ель": 163,
      "##ения": 164,
      "##ли": 165,
      "##да": 166,
      "##сти": 167,
      "ро": 168,
      "##на": 169,
      "от": 170,
      "во": 171,
      "ре": 172,
      "##ать": 173,
      "##из": 174,
      "##ски": 175,
      "##ных": 176,
      "вы": 177,
      "при": 178,
      "##че": 179,
      "росси": 180,
      "##ент": 181,
      "##ут": 182,
      "##сп": 183,
      "##ам": 184,
      "##ает": 185,
      "##ение": 186,
      "пер": 187,
      "##то": 188,
      "##ные": 189,
      "##ую": 190,
      "##ного": 191,
      "##ав": 192,
      "##ной": 193,
      "##ков": 194,
      "ком": 195,
      "##лу": 196,
      "##ят": 197,
      "##ги": 198,
      "##ар": 199,
      "##али": 200,
      "##рав": 201,
      "##аль": 202,
      "##ить": 203,
      "не": 204,
      "##ого": 205,
      "год": 206,
      "##ак": 207,
      "под": 208,
      "##оро": 209,
      "##ют": 210,
      "##ции": 211,
      "##ло": 212,
      "##те": 213,
      "##жд": 214,
      "##ид": 215,
      "##ря": 216,
      "пред": 217,
      "##не": 218,
      "##им": 219,
      "##ест": 220,
      "##ль": 221,
      "##или": 222,
      "раз": 223,
      "##ку": 224,
      "св": 225,
      "##ле": 226,
      "##ным": 227,
      "##сть": 228,
      "кон": 229,
      "ин": 230,
      "##оры": 231,
      "##ай": 232,
      "##ко": 233,
      "##ный": 234,
      "##уд": 235,
      "##оль": 236,
      "кот": 237,
      "##сь": 238,
      "##их": 239,
      "##общ": 240,
      "##ев": 241,
      "сообщ": 242,
      "##яв": 243,
      "##яб": 244,
      "##рат": 245,
      "##ход": 246,
      "##ля": 247,
      "##итель": 248,
      "до": 249,
      "##гра": 250,
      "сп": 251,
      "комп": 252,
      "##ис": 253,
      "##ча": 254,
      "##став": 255,
      "##ран": 256,
      "##руд": 257,
      "##мо": 258,
      "##су": 259,
      "##каз": 260,
      "##ия": 261,
      "мо": 262,
      "##ности": 263,
      "воз": 264,
      "##ской": 265,
      "нов": 266,
      "##бк": 267,
      "##ания": 268,
      "##ий": 269,
      "рбк": 270,
      "##сто": 271,
      "россии": 272,
      "##мер": 273,
      "##же": 274,
      "##лед": 275,
      "##па": 276,
      "##ыв": 277,
      "##ября": 278,
      "сот": 279,
      "##ном": 280,
      "это": 281,
      "##рудни": 282,
      "из": 283,
      "##бот": 284,
      "сотрудни": 285,
      "##ность": 286,
      "которы": 287,
      "ми": 288,
      "##ие": 289,
      "##гов": 290,
      "ка": 291,
      "##ур": 292,
      "##ез": 293,
      "##ала": 294,
      "##ик": 295,
      "так": 296,
      "##ера": 297,
      "##ении": 298,
      "заяв": 299,
      "ру": 300,
      "##лю": 301,
      "года": 302,
      "##айте": 303,
      "##ых": 304,
      "##ное": 305,
      "##уп": 306,
      "##ек": 307,
      "##ании": 308,
      "##ствен": 309,
      "##ии": 310,
      "##ства": 311,
      "оп": 312,
      "##мен": 313,
      "##ских": 314,
      "##лен": 315,
      "##аци": 316,
      "##дер": 317,
      "##ах": 318,
      "##ител": 319,
      "##еч": 320,
      "##прав": 321,
      "воен": 322,
      "но": 323,
      "##ди": 324,
      "##та": 325,
      "го": 326,
      "##ало": 327,
      "##ок": 328,
      "##ную": 329,
      "##ним": 330,
      "##ая": 331,
      "##лов": 332,
      "##вер": 333,
      "виз": 334,
      "##ые": 335,
      "ос": 336,
      "##ора": 337,
      "работ": 338,
      "##рос": 339,
      "ли": 340,
      "ук": 341,
      "##ского": 342,
      "##ают": 343,
      "##ком": 344,
      "полу": 345,
      "также": 346,
      "ев": 347,
      "чит": 348,
      "##ание": 349,
      "##стан": 350,
      "##ство": 351,
      "читайте": 352,
      "од": 353,
      "##нов": 354,
      "##дел": 355,
      "##ект": 356,
      "слу": 357,
      "##орм": 358,
      "россий": 359,
      "##ще": 360,
      "##ила": 361,
      "##олж": 362,
      "##чи": 363,
      "стра": 364,
      "сам": 365,
      "##орт": 366,
      "лет": 367,
      "ма": 368,
      "пров": 369,
      "##иче": 370,
      "##ду": 371,
      "##рем": 372,
      "зап": 373,
      "##ня": 374,
      "##ры": 375,
      "##зид": 376,
      "ав": 377,
      "##ме": 378,
      "рез": 379,
      ">-": 380,
      "##га": 381,
      "##ше": 382,
      "презид": 383,
      "президент": 384,
      "##шения": 385,
      "##держ": 386,
      "укра": 387,
      "##иров": 388,
      "##ели": 389,
      "пос": 390,
      "дв": 391,
      "##рет": 392,
      "##ейств": 393,
      "##льт": 394,
      "##гу": 395,
      "##ый": 396,
      "##ная": 397,
      "##ский": 398,
      "дел": 399,
      "##ется": 400,
      "##атель": 401,
      "получ": 402,
      "прав": 403,
      "##ления": 404,
      "##зов": 405,
      "россия": 406,
      "ноября": 407,
      "ча": 408,
      "##яз": 409,
      "исп": 410,
      "те": 411,
      "##ации": 412,
      "ме": 413,
      "##ять": 414,
      "##са": 415,
      "##ане": 416,
      "##лож": 417,
      "евро": 418,
      "##ну": 419,
      "##мент": 420,
      "##ша": 421,
      "нач": 422,
      "ор": 423,
      "##ке": 424,
      "##ень": 425,
      "су": 426,
      "##це": 427,
      "##енг": 428,
      "де": 429,
      "окт": 430,
      "##ист": 431,
      "##ое": 432,
      "##оч": 433,
      "##ульт": 434,
      "компании": 435,
      "гра": 436,
      "след": 437,
      "тел": 438,
      "##ва": 439,
      "##ска": 440,
      "буд": 441,
      "##ющ": 442,
      "##ится": 443,
      "##ступ": 444,
      "##нит": 445,
      "та": 446,
      "##уб": 447,
      "##уж": 448,
      "##рен": 449,
      "##вет": 450,
      "##оло": 451,
      ").": 452,
      "объ": 453,
      "##ается": 454,
      "па": 455,
      "##жб": 456,
      "дан": 457,
      "##ти": 458,
      "##чет": 459,
      "##гла": 460,
      "##ина": 461,
      "сов": 462,
      "##ник": 463,
      "##ред": 464,
      "##руп": 465,
      "ва": 466,
      "##ские": 467,
      "действ": 468,
      "##зв": 469,
      "##пл": 470,
      "##але": 471,
      "пол": 472,
      "##оров": 473,
      "зак": 474,
      "##ковод": 475,
      "##люч": 476,
      ">.": 477,
      "долж": 478,
      "пов": 479,
      "сша": 480,
      "##раз": 481,
      "##ере": 482,
      "##ными": 483,
      "перв": 484,
      "врем": 485,
      "##цион": 486,
      "году": 487,
      "руковод": 488,
      "сб": 489,
      "##оз": 490,
      "##рит": 491,
      "##пу": 492,
      "##гут": 493,
      "##форм": 494,
      "##стве": 495,
      "то": 496,
      "##ос": 497,
      "##пас": 498,
      "которые": 499,
      "##анд": 500,
      "##иль": 501,
      "##ами": 502,
      "##кой": 503,
      "##ерв": 504,
      "##ению": 505,
      "сво": 506,
      "##мож": 507,
      "ан": 508,
      "##ыс": 509,
      "##дар": 510,
      "вла": 511,
      "гла": 512,
      "лю": 513,
      "эк": 514,
      "служб": 515,
      "суд": 516,
      "##сов": 517,
      "##ений": 518,
      "украин": 519,
      "вер": 520,
      "мест": 521,
      "##ыт": 522,
      "##отов": 523,
      "произ": 524,
      "мл": 525,
      "##вы": 526,
      "##ета": 527,
      "отм": 528,
      "разв": 529,
      "ус": 530,
      "##лек": 531,
      "вз": 532,
      "чел": 533,
      "##чит": 534,
      "##ника": 535,
      "пот": 536,
      "реш": 537,
      "пере": 538,
      "##грам": 539,
      "тра": 540,
      "уб": 541,
      "##аг": 542,
      "##ым": 543,
      "##стре": 544,
      "##ники": 545,
      "##ском": 546,
      "##ус": 547,
      "##пол": 548,
      "##реб": 549,
      "##ило": 550,
      "##оне": 551,
      "рас": 552,
      "соб": 553,
      "время": 554,
      "дру": 555,
      "##стра": 556,
      "##изне": 557,
      "выда": 558,
      "связ": 559,
      "октября": 560,
      ">:": 561,
      "##ици": 562,
      "теле": 563,
      ">:<": 564,
      "бизне": 565,
      "гов": 566,
      "тер": 567,
      "того": 568,
      "##том": 569,
      "##вод": 570,
      "##стро": 571,
      "приз": 572,
      "перед": 573,
      "который": 574,
      "челов": 575,
      "ок": 576,
      "##ум": 577,
      "##крат": 578,
      "##шен": 579,
      "##нич": 580,
      "##ана": 581,
      "согла": 582,
      "##нач": 583,
      "спе": 584,
      "ди": 585,
      "##при": 586,
      "прот": 587,
      "конт": 588,
      "говор": 589,
      "пут": 590,
      "##зд": 591,
      "##аться": 592,
      "будут": 593,
      "ген": 594,
      "горо": 595,
      "слов": 596,
      "ту": 597,
      "##чер": 598,
      "##сколь": 599,
      "представ": 600,
      "пл": 601,
      "##де": 602,
      "могут": 603,
      "заявил": 604,
      "основ": 605,
      "орг": 606,
      "(<": 607,
      "боль": 608,
      "кан": 609,
      "##нут": 610,
      "##ег": 611,
      "##сы": 612,
      "##ател": 613,
      "##она": 614,
      "обла": 615,
      "инт": 616,
      "результ": 617,
      "гражд": 618,
      "результат": 619,
      "мат": 620,
      "##ве": 621,
      "##ста": 622,
      "возмож": 623,
      "ув": 624,
      "управ": 625,
      "##кет": 626,
      "расс": 627,
      "##коно": 628,
      "##стоя": 629,
      "против": 630,
      "тыс": 631,
      "##щен": 632,
      "##ерб": 633,
      "пресс": 634,
      "##ацию": 635,
      "иск": 636,
      "сан": 637,
      "##есп": 638,
      "##чу": 639,
      "##ний": 640,
      "##арт": 641,
      "тех": 642,
      "),": 643,
      "ране": 644,
      "##аб": 645,
      "##исси": 646,
      "##ление": 647,
      "##ши": 648,
      "##ност": 649,
      "##ктив": 650,
      "ранее": 651,
      "кол": 652,
      "сказ": 653,
      "шенг": 654,
      "##уч": 655,
      "##мы": 656,
      "##вест": 657,
      "##ников": 658,
      "##ским": 659,
      "##ующ": 660,
      "##станов": 661,
      "##убли": 662,
      "шенген": 663,
      "вк": 664,
      "уча": 665,
      "##ует": 666,
      "прод": 667,
      "##ему": 668,
      "отно": 669,
      "руб": 670,
      "данным": 671,
      "млн": 672,
      "ба": 673,
      "без": 674,
      "##иг": 675,
      "##аний": 676,
      "амер": 677,
      "##ней": 678,
      "##ром": 679,
      "##род": 680,
      "##ории": 681,
      "сообщил": 682,
      "##гранич": 683,
      "встре": 684,
      "доб": 685,
      "сро": 686,
      "##ост": 687,
      "##прос": 688,
      "##ких": 689,
      "##имо": 690,
      "##икан": 691,
      "исполь": 692,
      "телеграм": 693,
      "пу": 694,
      "пс": 695,
      "ск": 696,
      "##опас": 697,
      "##нер": 698,
      "##ших": 699,
      "##олов": 700,
      "состав": 701,
      "##ороны": 702,
      "информ": 703,
      "##судар": 704,
      "##ителя": 705,
      "##ителей": 706,
      "развит": 707,
      "бел": 708,
      "огранич": 709,
      "род": 710,
      "сред": 711,
      "##мп": 712,
      "##дов": 713,
      "##ены": 714,
      "##ращ": 715,
      "##ракт": 716,
      "##ниц": 717,
      "##ите": 718,
      "##аты": 719,
      "##ением": 720,
      "сотрудников": 721,
      "страны": 722,
      "специ": 723,
      "органи": 724,
      "американ": 725,
      "псих": 726,
      "##му": 727,
      "##сков": 728,
      "##ата": 729,
      "##ций": 730,
      "##ину": 731,
      "меся": 732,
      "отмет": 733,
      "уг": 734,
      "##ика": 735,
      "##ях": 736,
      "##рас": 737,
      "##инг": 738,
      "государ": 739,
      "резерв": 740,
      "послед": 741,
      "дву": 742,
      "словам": 743,
      "месяц": 744,
      "кри": 745,
      "сдел": 746,
      "чет": 747,
      "##мест": 748,
      "##иту": 749,
      "други": 750,
      "террит": 751,
      "вид": 752,
      "дом": 753,
      "много": 754,
      "нед": 755,
      "сер": 756,
      "тур": 757,
      "чис": 758,
      "##нии": 759,
      "##нист": 760,
      "пок": 761,
      "помо": 762,
      "задерж": 763,
      "##ональ": 764,
      "##руж": 765,
      "вопрос": 766,
      "безопас": 767,
      "ар": 768,
      "ес": 769,
      "мин": 770,
      "пет": 771,
      "цент": 772,
      "##бат": 773,
      "##оп": 774,
      "##мот": 775,
      "##вед": 776,
      "направ": 777,
      "##дав": 778,
      "ответ": 779,
      "##нее": 780,
      "спорт": 781,
      ">)": 782,
      "счит": 783,
      "##ию": 784,
      "##за": 785,
      "##мат": 786,
      "##шел": 787,
      "рай": 788,
      "наход": 789,
      "которо": 790,
      "##ному": 791,
      "призн": 792,
      "круп": 793,
      "оч": 794,
      "счет": 795,
      "##зы": 796,
      "##ская": 797,
      "проект": 798,
      "конф": 799,
      "евроком": 800,
      "##нитель": 801,
      "##лекс": 802,
      "граждан": 803,
      "груп": 804,
      "фин": 805,
      "##бу": 806,
      "##мит": 807,
      "##вар": 808,
      "##енных": 809,
      "##ова": 810,
      "##ализ": 811,
      "##ция": 812,
      "##нам": 813,
      "команд": 814,
      "несколь": 815,
      "поддерж": 816,
      "##лект": 817,
      "сообщает": 818,
      "##сточ": 819,
      "европ": 820,
      "бизнес": 821,
      "уп": 822,
      "##твер": 823,
      "##шие": 824,
      "##ена": 825,
      "##роме": 826,
      "##рект": 827,
      "соот": 828,
      "сотрудника": 829,
      "еврокомисси": 830,
      "##пи": 831,
      "##жи": 832,
      "##работ": 833,
      "визы": 834,
      "эксп": 835,
      "канале": 836,
      "вс": 837,
      "венг": 838,
      "день": 839,
      "иг": 840,
      "мот": 841,
      "оф": 842,
      "указ": 843,
      "##яс": 844,
      "##шение": 845,
      "##ене": 846,
      "##стов": 847,
      "обв": 848,
      "##гиче": 849,
      "##иться": 850,
      "предлож": 851,
      "дости": 852,
      "лич": 853,
      "провер": 854,
      "украине": 855,
      "тури": 856,
      "организ": 857,
      "мар": 858,
      "##дель": 859,
      "##стру": 860,
      "##роп": 861,
      "##олет": 862,
      "##ивиз": 863,
      "стан": 864,
      "реги": 865,
      "##арь": 866,
      "подчер": 867,
      "моск": 868,
      "##езд": 869,
      "одна": 870,
      "запрет": 871,
      "##сказ": 872,
      "безопасности": 873,
      "соответ": 874,
      "вед": 875,
      "сил": 876,
      "цел": 877,
      "##ян": 878,
      "##еры": 879,
      "##рии": 880,
      "расп": 881,
      "##ивать": 882,
      "##ятель": 883,
      "##ально": 884,
      "президента": 885,
      "услов": 886,
      "сказал": 887,
      "продолж": 888,
      "двух": 889,
      "ат": 890,
      "ве": 891,
      "нало": 892,
      "энер": 893,
      "##бе": 894,
      "##пис": 895,
      "##готов": 896,
      "##ью": 897,
      "поз": 898,
      "##атив": 899,
      "##ках": 900,
      "##кие": 901,
      "кажд": 902,
      "##ители": 903,
      "россиянам": 904,
      "верт": 905,
      "##ербур": 906,
      "использов": 907,
      "петербур": 908,
      "вод": 909,
      "кроме": 910,
      "мол": 911,
      "муж": 912,
      "уров": 913,
      "##акт": 914,
      "##бо": 915,
      "##бы": 916,
      "##иф": 917,
      "##кот": 918,
      "##кну": 919,
      "##вля": 920,
      "##жа": 921,
      "##рех": 922,
      "##ился": 923,
      "ракет": 924,
      "стран": 925,
      "##лия": 926,
      "##кумент": 927,
      "##ябре": 928,
      "документ": 929,
      "##дими": 930,
      "владими": 931,
      "##аббат": 932,
      "ак": 933,
      "источ": 934,
      "ры": 935,
      "ситу": 936,
      "саббат": 937,
      "тран": 938,
      "##иру": 939,
      "##лет": 940,
      "##ека": 941,
      "##сте": 942,
      "##ерн": 943,
      "##ался": 944,
      "##скую": 945,
      "##рий": 946,
      "зада": 947,
      "##обод": 948,
      "##точ": 949,
      "##уют": 950,
      "##куп": 951,
      "##ратив": 952,
      "минист": 953,
      "потреб": 954,
      "говорится": 955,
      "области": 956,
      "саббатик": 957,
      "дет": 958,
      "дол": 959,
      "ки": 960,
      "лу": 961,
      "сем": 962,
      "том": 963,
      "##ад": 964,
      "##ба": 965,
      "##бл": 966,
      "##ожд": 967,
      "##сед": 968,
      "##дет": 969,
      "##нил": 970,
      "##ние": 971,
      "##ремен": 972,
      "##анию": 973,
      "наз": 974,
      "общ": 975,
      "##стиче": 976,
      "респ": 977,
      "решения": 978,
      "необ": 979,
      "конце": 980,
      "руководитель": 981,
      "произо": 982,
      "групп": 983,
      "мотив": 984,
      "соответств": 985,
      "лид": 986,
      "пи": 987,
      "сист": 988,
      "ссы": 989,
      "эконо": 990,
      "##ины": 991,
      "заним": 992,
      "созд": 993,
      "##лад": 994,
      "перев": 995,
      "##ались": 996,
      "свобод": 997,
      "сообщили": 998,
      "изд": 999,
      "опера": 1000,
      "##ацион": 1001,
      "работы": 1002,
      "случа": 1003,
      "част": 1004,
      "убий": 1005,
      "человек": 1006,
      "контро": 1007,
      "санк": 1008,
      "резервист": 1009,
      "крип": 1010,
      "экономи": 1011,
      "актив": 1012,
      "бо": 1013,
      "бли": 1014,
      "вто": 1015,
      "га": 1016,
      "готов": 1017,
      "пар": 1018,
      "уточ": 1019,
      "##ями": 1020,
      "##ший": 1021,
      "показ": 1022,
      "##рей": 1023,
      "прош": 1024,
      "выб": 1025,
      "выс": 1026,
      "##ятся": 1027,
      "подготов": 1028,
      "##ществ": 1029,
      "автом": 1030,
      "##особ": 1031,
      "производ": 1032,
      "внут": 1033,
      "оц": 1034,
      "он": 1035,
      "суп": 1036,
      "член": 1037,
      "##иб": 1038,
      "##иод": 1039,
      "##чь": 1040,
      "##жим": 1041,
      "##енные": 1042,
      "##ниче": 1043,
      "##редел": 1044,
      "##оли": 1045,
      "##ются": 1046,
      "компания": 1047,
      "##ледов": 1048,
      "сотрудник": 1049,
      "##шего": 1050,
      "объяв": 1051,
      "важ": 1052,
      "должны": 1053,
      "люд": 1054,
      "решение": 1055,
      "исключ": 1056,
      "других": 1057,
      "финан": 1058,
      "обвин": 1059,
      "подчеркну": 1060,
      "необход": 1061,
      "алекс": 1062,
      "ри": 1063,
      "явля": 1064,
      "##аны": 1065,
      "##бли": 1066,
      "##рыв": 1067,
      "##йте": 1068,
      "##про": 1069,
      "##яж": 1070,
      "зам": 1071,
      "состоя": 1072,
      "##лаг": 1073,
      "обесп": 1074,
      "##дает": 1075,
      "отк": 1076,
      "пример": 1077,
      "период": 1078,
      "##чая": 1079,
      "##ация": 1080,
      "##ектив": 1081,
      "заключ": 1082,
      "глава": 1083,
      "уголов": 1084,
      "многократ": 1085,
      "однако": 1086,
      "ссыл": 1087,
      "зд": 1088,
      "кв": 1089,
      "мульт": 1090,
      "пе": 1091,
      "тор": 1092,
      "установ": 1093,
      "##ано": 1094,
      "##зах": 1095,
      "##ож": 1096,
      "##слу": 1097,
      "##щих": 1098,
      "##ям": 1099,
      "##овать": 1100,
      "##ерт": 1101,
      "поб": 1102,
      "##рия": 1103,
      "##сса": 1104,
      "##обил": 1105,
      "стро": 1106,
      "отпу": 1107,
      "##ляр": 1108,
      "##говор": 1109,
      "российских": 1110,
      "запре": 1111,
      "действия": 1112,
      "больш": 1113,
      "супру": 1114,
      "ссылкой": 1115,
      "дмит": 1116,
      "зат": 1117,
      "им": 1118,
      "име": 1119,
      "кор": 1120,
      "нуж": 1121,
      "ран": 1122,
      "треб": 1123,
      "факт": 1124,
      "элект": 1125,
      "##ающ": 1126,
      "##уз": 1127,
      "##уна": 1128,
      "##рт": 1129,
      "##дент": 1130,
      "##ыми": 1131,
      "##ете": 1132,
      "##ант": 1133,
      "##анных": 1134,
      "##рив": 1135,
      "##кту": 1136,
      "сто": 1137,
      "##лич": 1138,
      "рос": 1139,
      "прин": 1140,
      "прив": 1141,
      "##альные": 1142,
      "##аются": 1143,
      "##рыт": 1144,
      "дело": 1145,
      "ваш": 1146,
      "служба": 1147,
      "человека": 1148,
      "генера": 1149,
      "города": 1150,
      "управления": 1151,
      "добав": 1152,
      "территории": 1153,
      "помощ": 1154,
      "европей": 1155,
      "налогов": 1156,
      "республи": 1157,
      "систем": 1158,
      "обеспеч": 1159,
      "бу": 1160,
      "бло": 1161,
      "бесп": 1162,
      "ост": 1163,
      "оказ": 1164,
      "форм": 1165,
      "хот": 1166,
      "##иков": 1167,
      "##лении": 1168,
      "##шь": 1169,
      "##фф": 1170,
      "##енци": 1171,
      "##раж": 1172,
      "##еть": 1173,
      "постав": 1174,
      "постра": 1175,
      "заб": 1176,
      "законо": 1177,
      "##ону": 1178,
      "##един": 1179,
      "наб": 1180,
      "стал": 1181,
      "стать": 1182,
      "##лиров": 1183,
      "режим": 1184,
      "##чев": 1185,
      "##альной": 1186,
      "##ились": 1187,
      "##ляет": 1188,
      "##ительно": 1189,
      "новак": 1190,
      "##ывает": 1191,
      "военной": 1192,
      "страте": 1193,
      "испыт": 1194,
      "полит": 1195,
      "глав": 1196,
      "перегов": 1197,
      "количе": 1198,
      "специали": 1199,
      "конфли": 1200,
      "молод": 1201,
      "трансп": 1202,
      ">,": 1203,
      "ис": 1204,
      "мак": 1205,
      "сек": 1206,
      "слож": 1207,
      "##ака": 1208,
      "##ох": 1209,
      "##ун": 1210,
      "##рь": 1211,
      "##ма": 1212,
      "##сим": 1213,
      "##сты": 1214,
      "поезд": 1215,
      "##ское": 1216,
      "##ством": 1217,
      "##ствия": 1218,
      "##сят": 1219,
      "##над": 1220,
      "отрас": 1221,
      "выпол": 1222,
      "##ального": 1223,
      "##жден": 1224,
      "инвест": 1225,
      "##ева": 1226,
      "способ": 1227,
      "сотрудники": 1228,
      "##ностью": 1229,
      "##елич": 1230,
      "межд": 1231,
      "следующ": 1232,
      "трам": 1233,
      "рассказ": 1234,
      "выдачу": 1235,
      "условия": 1236,
      "лидер": 1237,
      "мультивиз": 1238,
      "запрещен": 1239,
      "конфликт": 1240,
      "ад": 1241,
      "гол": 1242,
      "зв": 1243,
      "знач": 1244,
      "ию": 1245,
      "оа": 1246,
      "ром": 1247,
      "сод": 1248,
      "сез": 1249,
      "труд": 1250,
      "уда": 1251,
      "фон": 1252,
      "чем": 1253,
      "шт": 1254,
      "##лив": 1255,
      "##нем": 1256,
      "##вор": 1257,
      "##ге": 1258,
      "##ыш": 1259,
      "##юз": 1260,
      "##стран": 1261,
      "##ери": 1262,
      "##рой": 1263,
      "##ске": 1264,
      "##цию": 1265,
      "проф": 1266,
      "прода": 1267,
      "проход": 1268,
      "проце": 1269,
      "##скими": 1270,
      "##альных": 1271,
      "инд": 1272,
      "новака": 1273,
      "измен": 1274,
      "военных": 1275,
      "##алось": 1276,
      "провед": 1277,
      "правитель": 1278,
      "первый": 1279,
      "люб": 1280,
      "место": 1281,
      "около": 1282,
      "соглас": 1283,
      "плани": 1284,
      "интере": 1285,
      "результате": 1286,
      "увелич": 1287,
      "мужч": 1288,
      "внутрен": 1289,
      "людей": 1290,
      "##ународ": 1291,
      "международ": 1292,
      "чемпи": 1293,
      "-<": 1294,
      "ви": 1295,
      "вой": 1296,
      "вмест": 1297,
      "влия": 1298,
      "ко": 1299,
      "кру": 1300,
      "мед": 1301,
      "нат": 1302,
      "тем": 1303,
      "эта": 1304,
      "ядер": 1305,
      "##тор": 1306,
      "##ики": 1307,
      "##ех": 1308,
      "##сб": 1309,
      "##жен": 1310,
      "##рал": 1311,
      "##еру": 1312,
      "позв": 1313,
      "##илот": 1314,
      "завер": 1315,
      "пробл": 1316,
      "регу": 1317,
      "разработ": 1318,
      "инф": 1319,
      "котора": 1320,
      "##рать": 1321,
      "допол": 1322,
      "мира": 1323,
      "мино": 1324,
      "##ственно": 1325,
      "определ": 1326,
      "украины": 1327,
      "##мента": 1328,
      "отмеч": 1329,
      "трамп": 1330,
      "связи": 1331,
      "##вести": 1332,
      "##остей": 1333,
      "##ингт": 1334,
      "числе": 1335,
      "##матрив": 1336,
      "каждый": 1337,
      "произош": 1338,
      "вашингт": 1339,
      "оаэ": 1340,
      "которая": 1341,
      "ап": 1342,
      "аэ": 1343,
      "всу": 1344,
      "дл": 1345,
      "зна": 1346,
      "кра": 1347,
      "нем": 1348,
      "фи": 1349,
      "шаг": 1350,
      "##ца": 1351,
      "##остав": 1352,
      "##вд": 1353,
      "##овые": 1354,
      "##ноло": 1355,
      "##еро": 1356,
      "##роч": 1357,
      "пока": 1358,
      "##ому": 1359,
      "##оруж": 1360,
      "сох": 1361,
      "проку": 1362,
      "нас": 1363,
      "назв": 1364,
      "обы": 1365,
      "отправ": 1366,
      "подоз": 1367,
      "##леж": 1368,
      "##сур": 1369,
      "новых": 1370,
      "новостей": 1371,
      "казах": 1372,
      "заявления": 1373,
      "##щего": 1374,
      "бизнеса": 1375,
      "##строй": 1376,
      "##ума": 1377,
      "техноло": 1378,
      "##имости": 1379,
      "государствен": 1380,
      "центра": 1381,
      "районе": 1382,
      "ведом": 1383,
      "побед": 1384,
      "дмитрий": 1385,
      "процесс": 1386,
      "дополнитель": 1387,
      "миноб": 1388,
      "аг": 1389,
      "введ": 1390,
      "даль": 1391,
      "жиз": 1392,
      "ини": 1393,
      "кам": 1394,
      "мн": 1395,
      "смо": 1396,
      "фран": 1397,
      "##ещ": 1398,
      "##есси": 1399,
      "##сиров": 1400,
      "##дж": 1401,
      "##яли": 1402,
      "##жение": 1403,
      "поги": 1404,
      "поль": 1405,
      "##анием": 1406,
      "нар": 1407,
      "напри": 1408,
      "стало": 1409,
      "обяз": 1410,
      "приним": 1411,
      "коман": 1412,
      "сообщила": 1413,
      "мошен": 1414,
      "возду": 1415,
      "##орту": 1416,
      "провод": 1417,
      "##ических": 1418,
      "запу": 1419,
      "право": 1420,
      "россиян": 1421,
      "части": 1422,
      "сум": 1423,
      "свои": 1424,
      "люди": 1425,
      "собствен": 1426,
      "директ": 1427,
      "путин": 1428,
      "срок": 1429,
      "пун": 1430,
      "белор": 1431,
      "четы": 1432,
      "дома": 1433,
      "турни": 1434,
      "является": 1435,
      "песков": 1436,
      "пострадав": 1437,
      "чемпион": 1438,
      "позвол": 1439,
      "минобороны": 1440,
      "например": 1441,
      "бы": 1442,
      "км": 1443,
      "кит": 1444,
      "код": 1445,
      "крас": 1446,
      "мор": 1447,
      "пят": 1448,
      "пак": 1449,
      "рей": 1450,
      "сни": 1451,
      "фор": 1452,
      "циф": 1453,
      "эфф": 1454,
      "##аем": 1455,
      "##знач": 1456,
      "##рел": 1457,
      "##мь": 1458,
      "##кин": 1459,
      "##датель": 1460,
      "##пут": 1461,
      "##итет": 1462,
      "##елен": 1463,
      "поп": 1464,
      "поли": 1465,
      "##атели": 1466,
      "##анные": 1467,
      "зав": 1468,
      "запас": 1469,
      "##обиль": 1470,
      "##ивает": 1471,
      "##дают": 1472,
      "отс": 1473,
      "отдель": 1474,
      "вооруж": 1475,
      "ресур": 1476,
      "выступ": 1477,
      "##честве": 1478,
      "нес": 1479,
      "подход": 1480,
      "подтвер": 1481,
      "##орон": 1482,
      "##ывать": 1483,
      "##лючая": 1484,
      "##ечение": 1485,
      "военно": 1486,
      "особ": 1487,
      "##росо": 1488,
      "евросо": 1489,
      "само": 1490,
      "орб": 1491,
      "буду": 1492,
      "такие": 1493,
      "совер": 1494,
      "сбор": 1495,
      "передает": 1496,
      "соглашения": 1497,
      "##прият": 1498,
      "представитель": 1499,
      "##ателей": 1500,
      "санкт": 1501,
      "включая": 1502,
      "развития": 1503,
      "отметил": 1504,
      "покол": 1505,
      "несколько": 1506,
      "пиш": 1507,
      "издание": 1508,
      "экономиче": 1509,
      "подчеркнул": 1510,
      "торгов": 1511,
      "генераль": 1512,
      "пункт": 1513,
      "дж": 1514,
      "даг": 1515,
      "зу": 1516,
      "зем": 1517,
      "игра": 1518,
      "кат": 1519,
      "кла": 1520,
      "клю": 1521,
      "ни": 1522,
      "осу": 1523,
      "пло": 1524,
      "сент": 1525,
      "трен": 1526,
      "цель": 1527,
      "эт": 1528,
      "##лом": 1529,
      "##ости": 1530,
      "##ура": 1531,
      "##рд": 1532,
      "##си": 1533,
      "##хл": 1534,
      "##шении": 1535,
      "##нин": 1536,
      "пох": 1537,
      "покуп": 1538,
      "зах": 1539,
      "защ": 1540,
      "##ствие": 1541,
      "##инов": 1542,
      "соз": 1543,
      "##миров": 1544,
      "проис": 1545,
      "##кий": 1546,
      "преступ": 1547,
      "премь": 1548,
      "обрат": 1549,
      "обсу": 1550,
      "рост": 1551,
      "выход": 1552,
      "неф": 1553,
      "предостав": 1554,
      "##него": 1555,
      "консу": 1556,
      "изб": 1557,
      "одно": 1558,
      "ави": 1559,
      "получить": 1560,
      "начала": 1561,
      "дека": 1562,
      "должен": 1563,
      "власти": 1564,
      "переда": 1565,
      "контракт": 1566,
      "план": 1567,
      "##ателя": 1568,
      "возможность": 1569,
      "участ": 1570,
      "информации": 1571,
      "психоло": 1572,
      "виде": 1573,
      "еврокомиссии": 1574,
      "еврокомиссия": 1575,
      "офици": 1576,
      "достиг": 1577,
      "владимир": 1578,
      "лукой": 1579,
      "боев": 1580,
      "александ": 1581,
      "количество": 1582,
      "секрет": 1583,
      "отрасли": 1584,
      "трампа": 1585,
      "содер": 1586,
      "нато": 1587,
      "регуляр": 1588,
      "казахстан": 1589,
      "иници": 1590,
      "дагест": 1591,
      "зумер": 1592,
      "дро": 1593,
      "ист": 1594,
      "иност": 1595,
      "кур": 1596,
      "куп": 1597,
      "крит": 1598,
      "луч": 1599,
      "мно": 1600,
      "мвд": 1601,
      "пять": 1602,
      "уз": 1603,
      "утвер": 1604,
      "фед": 1605,
      "##лся": 1606,
      "##оци": 1607,
      "##ести": 1608,
      "##чин": 1609,
      "##пов": 1610,
      "##вращ": 1611,
      "##яет": 1612,
      "##ья": 1613,
      "##овал": 1614,
      "##рах": 1615,
      "##раф": 1616,
      "##алы": 1617,
      "пон": 1618,
      "##орь": 1619,
      "##руз": 1620,
      "национ": 1621,
      "##ким": 1622,
      "выпл": 1623,
      "принад": 1624,
      "##гия": 1625,
      "подраз": 1626,
      "подпис": 1627,
      "##ждения": 1628,
      "##ряд": 1629,
      "возра": 1630,
      "##стоятель": 1631,
      "которых": 1632,
      "##уры": 1633,
      "военные": 1634,
      "визу": 1635,
      "работу": 1636,
      "лиц": 1637,
      "маск": 1638,
      "##ировать": 1639,
      "начале": 1640,
      "своей": 1641,
      "млрд": 1642,
      "шенгенских": 1643,
      "месяцев": 1644,
      "территор": 1645,
      "сотрудникам": 1646,
      "операции": 1647,
      "финансов": 1648,
      "беспилот": 1649,
      "законодатель": 1650,
      "транспорт": 1651,
      "адми": 1652,
      "согласно": 1653,
      "воздуш": 1654,
      "пишет": 1655,
      "декаб": 1656,
      "иностран": 1657,
      "асс": 1658,
      "арен": 1659,
      "бан": 1660,
      "вол": 1661,
      "дональ": 1662,
      "ек": 1663,
      "иде": 1664,
      "мет": 1665,
      "ниг": 1666,
      "сим": 1667,
      "трет": 1668,
      "течение": 1669,
      "ха": 1670,
      "ход": 1671,
      "шах": 1672,
      "##боч": 1673,
      "##лы": 1674,
      "##дин": 1675,
      "##пер": 1676,
      "##гет": 1677,
      "##жив": 1678,
      "##етель": 1679,
      "##мии": 1680,
      "нап": 1681,
      "##рова": 1682,
      "##гии": 1683,
      "##альный": 1684,
      "неп": 1685,
      "предус": 1686,
      "компаний": 1687,
      "##чают": 1688,
      "мир": 1689,
      "##алась": 1690,
      "опе": 1691,
      "гос": 1692,
      "российской": 1693,
      "##илась": 1694,
      "##ющий": 1695,
      "закон": 1696,
      "сборов": 1697,
      "потенци": 1698,
      "##скому": 1699,
      "##илось": 1700,
      "##тому": 1701,
      "включ": 1702,
      "участв": 1703,
      "развитие": 1704,
      "задержали": 1705,
      "которого": 1706,
      "очков": 1707,
      "эксперт": 1708,
      "энергет": 1709,
      "позици": 1710,
      "министр": 1711,
      "саббатикал": 1712,
      "свободы": 1713,
      "убийстве": 1714,
      "примерно": 1715,
      "агент": 1716,
      "наркот": 1717,
      "секретарь": 1718,
      "инициатив": 1719,
      "..": 1720,
      "аре": 1721,
      "вним": 1722,
      "вене": 1723,
      "времен": 1724,
      "дал": 1725,
      "жен": 1726,
      "зан": 1727,
      "идет": 1728,
      "клу": 1729,
      "мал": 1730,
      "нет": 1731,
      "практ": 1732,
      "трех": 1733,
      "удов": 1734,
      "ян": 1735,
      "##тан": 1736,
      "##ира": 1737,
      "##лять": 1738,
      "##еб": 1739,
      "##ды": 1740,
      "##пе": 1741,
      "##ват": 1742,
      "##веч": 1743,
      "##рори": 1744,
      "поним": 1745,
      "порт": 1746,
      "##орта": 1747,
      "##олета": 1748,
      "##кам": 1749,
      "рам": 1750,
      "сочи": 1751,
      "програм": 1752,
      "##киров": 1753,
      "став": 1754,
      "приня": 1755,
      "##неш": 1756,
      "разре": 1757,
      "свой": 1758,
      "инвести": 1759,
      "новые": 1760,
      "##мерт": 1761,
      "кад": 1762,
      "госп": 1763,
      "##орах": 1764,
      "##щее": 1765,
      "самолет": 1766,
      "летний": 1767,
      "##ировали": 1768,
      "началь": 1769,
      "деятель": 1770,
      "депут": 1771,
      "таких": 1772,
      "действий": 1773,
      "службе": 1774,
      "взрыв": 1775,
      "выдачи": 1776,
      "окруж": 1777,
      "город": 1778,
      "интерн": 1779,
      "информацию": 1780,
      "средств": 1781,
      "считает": 1782,
      "команды": 1783,
      "нескольких": 1784,
      "все": 1785,
      "вертолет": 1786,
      "крипт": 1787,
      "оцен": 1788,
      "максим": 1789,
      "професси": 1790,
      "проблем": 1791,
      "смогут": 1792,
      "четыре": 1793,
      "эффектив": 1794,
      "ключев": 1795,
      "федера": 1796,
      "...": 1797,
      "бал": 1798,
      "дов": 1799,
      "дней": 1800,
      "жел": 1801,
      "исс": 1802,
      "ито": 1803,
      "имен": 1804,
      "ку": 1805,
      "мен": 1806,
      "нор": 1807,
      "нане": 1808,
      "ож": 1809,
      "очер": 1810,
      "оруж": 1811,
      "сф": 1812,
      "сре": 1813,
      "усп": 1814,
      "учет": 1815,
      "цен": 1816,
      "чер": 1817,
      "##зу": 1818,
      "##сии": 1819,
      "##сроч": 1820,
      "##чив": 1821,
      "##год": 1822,
      "##жения": 1823,
      "##енно": 1824,
      "##растру": 1825,
      "##нили": 1826,
      "##рев": 1827,
      "##ате": 1828,
      "##ками": 1829,
      "рабоч": 1830,
      "стороны": 1831,
      "образ": 1832,
      "выд": 1833,
      "нез": 1834,
      "некот": 1835,
      "##орож": 1836,
      "##ждение": 1837,
      "свое": 1838,
      "##ходит": 1839,
      "достав": 1840,
      "##рант": 1841,
      "##суэ": 1842,
      "возвращ": 1843,
      "извест": 1844,
      "##аций": 1845,
      "осв": 1846,
      "либо": 1847,
      "##нить": 1848,
      "тасс": 1849,
      "объект": 1850,
      "объяс": 1851,
      "службы": 1852,
      "матча": 1853,
      "рассматрив": 1854,
      "##ностей": 1855,
      "##имость": 1856,
      "психоп": 1857,
      "угро": 1858,
      "ответствен": 1859,
      "очень": 1860,
      "проверки": 1861,
      "энерго": 1862,
      "ближ": 1863,
      "второй": 1864,
      "требов": 1865,
      "вместе": 1866,
      "инфрастру": 1867,
      "аэроп": 1868,
      "длитель": 1869,
      "фигу": 1870,
      "сохран": 1871,
      "катег": 1872,
      "площ": 1873,
      "александр": 1874,
      "принадлеж": 1875,
      "подраздел": 1876,
      "венесуэ": 1877,
      "рамках": 1878,
      "очеред": 1879,
      ".,": 1880,
      "борту": 1881,
      "борь": 1882,
      "вп": 1883,
      "да": 1884,
      "жур": 1885,
      "мом": 1886,
      "мил": 1887,
      "мод": 1888,
      "см": 1889,
      "ска": 1890,
      "сег": 1891,
      "ут": 1892,
      "что": 1893,
      "шк": 1894,
      "шай": 1895,
      "##ику": 1896,
      "##цев": 1897,
      "##они": 1898,
      "##нали": 1899,
      "##сен": 1900,
      "##кан": 1901,
      "##чно": 1902,
      "##юза": 1903,
      "##шим": 1904,
      "##шта": 1905,
      "##фон": 1906,
      "##еров": 1907,
      "##ело": 1908,
      "поч": 1909,
      "пож": 1910,
      "позд": 1911,
      "посколь": 1912,
      "##атор": 1913,
      "##одейств": 1914,
      "##мист": 1915,
      "##обожд": 1916,
      "стол": 1917,
      "стар": 1918,
      "столи": 1919,
      "отд": 1920,
      "воин": 1921,
      "речь": 1922,
      "примен": 1923,
      "комисси": 1924,
      "##альное": 1925,
      "##орот": 1926,
      "доступ": 1927,
      "##лено": 1928,
      "военную": 1929,
      "работе": 1930,
      "##ически": 1931,
      "##ической": 1932,
      "##мещ": 1933,
      "часть": 1934,
      "##яться": 1935,
      "октябре": 1936,
      "границ": 1937,
      "##ющие": 1938,
      "паром": 1939,
      "данные": 1940,
      "сборы": 1941,
      "матери": 1942,
      "вклад": 1943,
      "участи": 1944,
      "встречи": 1945,
      "гражданам": 1946,
      "деньги": 1947,
      "семь": 1948,
      "контроль": 1949,
      "крипто": 1950,
      "планиру": 1951,
      "отмечает": 1952,
      "погибли": 1953,
      "пользов": 1954,
      "сумму": 1955,
      "красно": 1956,
      "премьер": 1957,
      "исследов": 1958,
      "норве": 1959,
      "освобожд": 1960,
      "момент": 1961,
      "поскольку": 1962,
      "ана": 1963,
      "аль": 1964,
      "вступ": 1965,
      "гру": 1966,
      "дав": 1967,
      "коло": 1968,
      "ло": 1969,
      "лит": 1970,
      "пр": 1971,
      "пря": 1972,
      "пис": 1973,
      "парт": 1974,
      "ря": 1975,
      "точ": 1976,
      "##бой": 1977,
      "##зам": 1978,
      "##нения": 1979,
      "##ув": 1980,
      "##усси": 1981,
      "##рения": 1982,
      "##со": 1983,
      "##сон": 1984,
      "##йти": 1985,
      "##чен": 1986,
      "##пров": 1987,
      "##вей": 1988,
      "##гом": 1989,
      "##гей": 1990,
      "##сту": 1991,
      "##нос": 1992,
      "##рон": 1993,
      "##итета": 1994,
      "появ": 1995,
      "##ско": 1996,
      "##анной": 1997,
      "##ству": 1998,
      "соци": 1999,
      "состо": 2000,
      "прог": 2001,
      "нару": 2002,
      "##лись": 2003,
      "отказ": 2004,
      "отчет": 2005,
      "отлич": 2006,
      "восп": 2007,
      "призв": 2008,
      "переч": 2009,
      "предвар": 2010,
      "##иму": 2011,
      "##удили": 2012,
      "сообщении": 2013,
      "##ябрь": 2014,
      "комплек": 2015,
      "возник": 2016,
      "##ывают": 2017,
      "качестве": 2018,
      "##екин": 2019,
      "опубли": 2020,
      "##ечно": 2021,
      "ноябре": 2022,
      "одного": 2023,
      "российские": 2024,
      "##няет": 2025,
      "получение": 2026,
      "правил": 2027,
      "чаще": 2028,
      "следов": 2029,
      "следует": 2030,
      "##ваем": 2031,
      "##ющих": 2032,
      "своих": 2033,
      "анд": 2034,
      "экстре": 2035,
      "усил": 2036,
      "вза": 2037,
      "##никами": 2038,
      "расши": 2039,
      "сделать": 2040,
      ">).": 2041,
      "находится": 2042,
      "венгрии": 2043,
      "станет": 2044,
      "москвы": 2045,
      "вертолета": 2046,
      "рын": 2047,
      "министер": 2048,
      "группы": 2049,
      "мотивации": 2050,
      "важно": 2051,
      "обвиня": 2052,
      "##обилиз": 2053,
      "отпуск": 2054,
      "нужно": 2055,
      "##охра": 2056,
      "фонтан": 2057,
      "интерес": 2058,
      "мошенниче": 2059,
      "правоохра": 2060,
      "цифров": 2061,
      "содерж": 2062,
      "оператив": 2063,
      "профессиональ": 2064,
      "нанес": 2065,
      "опубликов": 2066,
      "экстремист": 2067,
      "ал": 2068,
      "бе": 2069,
      "бетель": 2070,
      "вв": 2071,
      "вал": 2072,
      "един": 2073,
      "киз": 2074,
      "куб": 2075,
      "карь": 2076,
      "мобилиз": 2077,
      "ны": 2078,
      "оно": 2079,
      "оформ": 2080,
      "пла": 2081,
      "публи": 2082,
      "силь": 2083,
      "тро": 2084,
      "трав": 2085,
      "тяж": 2086,
      "##ищ": 2087,
      "##цы": 2088,
      "##кращ": 2089,
      "##чат": 2090,
      "##ви": 2091,
      "##гор": 2092,
      "##гли": 2093,
      "##груз": 2094,
      "##шей": 2095,
      "##шлен": 2096,
      "##нистра": 2097,
      "##ерен": 2098,
      "##иты": 2099,
      "полож": 2100,
      "##рее": 2101,
      "##атов": 2102,
      "##ория": 2103,
      "##онч": 2104,
      "##руч": 2105,
      "##едж": 2106,
      "проц": 2107,
      "проду": 2108,
      "награ": 2109,
      "наказ": 2110,
      "навы": 2111,
      "обна": 2112,
      "обуч": 2113,
      "##иду": 2114,
      "разб": 2115,
      "сообщения": 2116,
      "сообщается": 2117,
      "море": 2118,
      "возбу": 2119,
      "кас": 2120,
      "лишения": 2121,
      "лишь": 2122,
      "страна": 2123,
      "саммит": 2124,
      "маг": 2125,
      "авгу": 2126,
      "автор": 2127,
      "##шее": 2128,
      "две": 2129,
      "двиг": 2130,
      "объедин": 2131,
      "пасса": 2132,
      "времени": 2133,
      "своем": 2134,
      "террори": 2135,
      "представители": 2136,
      "##нуть": 2137,
      "##ерба": 2138,
      "##мышлен": 2139,
      "отношении": 2140,
      "басти": 2141,
      "встреча": 2142,
      "составляет": 2143,
      "ограничения": 2144,
      "четвер": 2145,
      "покров": 2146,
      "армии": 2147,
      "признал": 2148,
      "счету": 2149,
      "венгер": 2150,
      "маркет": 2151,
      "источники": 2152,
      "случае": 2153,
      "санкций": 2154,
      "резервисты": 2155,
      "близ": 2156,
      "высок": 2157,
      "оцени": 2158,
      "уголовное": 2159,
      "многократных": 2160,
      "республики": 2161,
      "переговоры": 2162,
      "вашингтон": 2163,
      "прокурат": 2164,
      "централь": 2165,
      "жизн": 2166,
      "кодек": 2167,
      "запасе": 2168,
      "целью": 2169,
      "изберба": 2170,
      "ассоци": 2171,
      "госду": 2172,
      "некоторы": 2173,
      "позднее": 2174,
      "грузов": 2175,
      "комплекса": 2176,
      "взаим": 2177,
      "нынеш": 2178,
      "аз": 2179,
      "бол": 2180,
      "бере": 2181,
      "въ": 2182,
      "вне": 2183,
      "дня": 2184,
      "дивиз": 2185,
      "карт": 2186,
      "ник": 2187,
      "остав": 2188,
      "орех": 2189,
      "роб": 2190,
      "сут": 2191,
      "ско": 2192,
      "тр": 2193,
      "уд": 2194,
      "хат": 2195,
      "##аги": 2196,
      "##быв": 2197,
      "##лению": 2198,
      "##рк": 2199,
      "##ец": 2200,
      "##ман": 2201,
      "##чей": 2202,
      "##пит": 2203,
      "##вали": 2204,
      "##шить": 2205,
      "##енного": 2206,
      "##алов": 2207,
      "постро": 2208,
      "##реп": 2209,
      "##регу": 2210,
      "##реваем": 2211,
      "##аточ": 2212,
      "##риров": 2213,
      "##ондент": 2214,
      "раст": 2215,
      "союз": 2216,
      "прось": 2217,
      "просто": 2218,
      "нам": 2219,
      "нагруз": 2220,
      "пребыв": 2221,
      "##ивают": 2222,
      "обороны": 2223,
      "обращ": 2224,
      "вос": 2225,
      "##ента": 2226,
      "##гий": 2227,
      "годы": 2228,
      "##ором": 2229,
      "предпри": 2230,
      "предлаг": 2231,
      "инстру": 2232,
      "сообщило": 2233,
      "договор": 2234,
      "комплекс": 2235,
      "мож": 2236,
      "##пад": 2237,
      "миров": 2238,
      "заявила": 2239,
      "##ственных": 2240,
      "##ственный": 2241,
      "##лены": 2242,
      "##верен": 2243,
      "##орами": 2244,
      "российский": 2245,
      "##щественно": 2246,
      "авто": 2247,
      "делу": 2248,
      "получил": 2249,
      "правила": 2250,
      "испол": 2251,
      "существ": 2252,
      "десят": 2253,
      "октябрь": 2254,
      "пара": 2255,
      "полно": 2256,
      "полностью": 2257,
      "должна": 2258,
      "анало": 2259,
      "главы": 2260,
      "службу": 2261,
      "судно": 2262,
      "убе": 2263,
      "связь": 2264,
      "##ициров": 2265,
      "орган": 2266,
      "рассмот": 2267,
      "искус": 2268,
      "колле": 2269,
      "относ": 2270,
      "базы": 2271,
      "отметили": 2272,
      "последний": 2273,
      "последние": 2274,
      "другие": 2275,
      "недост": 2276,
      "сергей": 2277,
      "помог": 2278,
      "силы": 2279,
      "распро": 2280,
      "##беж": 2281,
      "уровень": 2282,
      "ситуации": 2283,
      "##летвор": 2284,
      "долго": 2285,
      "занимает": 2286,
      "газ": 2287,
      "автомобил": 2288,
      "многократные": 2289,
      "здоров": 2290,
      "добавил": 2291,
      "испытания": 2292,
      "##ждено": 2293,
      "мультивизы": 2294,
      "мужчина": 2295,
      "край": 2296,
      "подозреваем": 2297,
      "белорусси": 2298,
      "попыт": 2299,
      "орбан": 2300,
      "осуществ": 2301,
      "территорию": 2302,
      "характ": 2303,
      "ходе": 2304,
      "среди": 2305,
      "журнали": 2306,
      "правоохранитель": 2307,
      "тяжел": 2308,
      "дивизи": 2309,
      "бри": 2310,
      "быв": 2311,
      "ду": 2312,
      "дев": 2313,
      "дума": 2314,
      "крем": 2315,
      "лав": 2316,
      "лег": 2317,
      "мч": 2318,
      "меро": 2319,
      "ника": 2320,
      "оши": 2321,
      "ожи": 2322,
      "овеч": 2323,
      "пен": 2324,
      "пит": 2325,
      "ред": 2326,
      "сайте": 2327,
      "там": 2328,
      "това": 2329,
      "ум": 2330,
      "уни": 2331,
      "устрой": 2332,
      "урегу": 2333,
      "фут": 2334,
      "фев": 2335,
      "шести": 2336,
      "швей": 2337,
      "эл": 2338,
      "##ио": 2339,
      "##оны": 2340,
      "##оят": 2341,
      "##ость": 2342,
      "##ню": 2343,
      "##ешь": 2344,
      "##йдет": 2345,
      "##чных": 2346,
      "##чной": 2347,
      "##гатель": 2348,
      "##жест": 2349,
      "##фин": 2350,
      "##фик": 2351,
      "##них": 2352,
      "##рошен": 2353,
      "##ита": 2354,
      "пояс": 2355,
      "##режд": 2356,
      "##омин": 2357,
      "##одно": 2358,
      "##одня": 2359,
      "##ота": 2360,
      "##риб": 2361,
      "заработ": 2362,
      "##ине": 2363,
      "##инк": 2364,
      "сопров": 2365,
      "напис": 2366,
      "##ивиду": 2367,
      "сторо": 2368,
      "отмен": 2369,
      "отдел": 2370,
      "реком": 2371,
      "вырос": 2372,
      "высказ": 2373,
      "прибы": 2374,
      "##чеб": 2375,
      "##ентов": 2376,
      "##гие": 2377,
      "##ары": 2378,
      "##альным": 2379,
      "##альную": 2380,
      "##жде": 2381,
      "разгов": 2382,
      "конц": 2383,
      "констан": 2384,
      "нового": 2385,
      "##парат": 2386,
      "мигра": 2387,
      "опыт": 2388,
      "получают": 2389,
      "российского": 2390,
      "мас": 2391,
      "##рыто": 2392,
      "делать": 2393,
      "##ательно": 2394,
      "европу": 2395,
      "тела": 2396,
      "совмест": 2397,
      "##плом": 2398,
      "##плей": 2399,
      "##может": 2400,
      "телефон": 2401,
      "спец": 2402,
      "диплом": 2403,
      "путина": 2404,
      "##здрав": 2405,
      "городе": 2406,
      "расследов": 2407,
      "##ующих": 2408,
      "встрече": 2409,
      "сроки": 2410,
      "государства": 2411,
      "число": 2412,
      "вопросы": 2413,
      "проекта": 2414,
      "предложил": 2415,
      "организаций": 2416,
      "водитель": 2417,
      "ракеты": 2418,
      "источник": 2419,
      "##ирует": 2420,
      "назнач": 2421,
      "высо": 2422,
      "##иби": 2423,
      "открыт": 2424,
      "супругов": 2425,
      "принят": 2426,
      "поездки": 2427,
      "выполн": 2428,
      "конфликта": 2429,
      "романа": 2430,
      "сезоне": 2431,
      "продаж": 2432,
      "индивиду": 2433,
      "произошло": 2434,
      "знаком": 2435,
      "назвал": 2436,
      "технологиче": 2437,
      "мнению": 2438,
      "франц": 2439,
      "обязан": 2440,
      "команда": 2441,
      "турнир": 2442,
      "пострадавших": 2443,
      "позволяет": 2444,
      "китай": 2445,
      "пакет": 2446,
      "завис": 2447,
      "евросоюз": 2448,
      "##приятия": 2449,
      "консуль": 2450,
      "психологиче": 2451,
      "иностранных": 2452,
      "именно": 2453,
      "ожид": 2454,
      "образом": 2455,
      "сегодня": 2456,
      "колонии": 2457,
      "ряд": 2458,
      "предваритель": 2459,
      "обнаруж": 2460,
      "маркетплей": 2461,
      "госдумы": 2462,
      "распростран": 2463,
      "мчс": 2464,
      "урегулиров": 2465,
      "футб": 2466,
      "февра": 2467,
      "рекомен": 2468,
      "констант": 2469,
      "ах": 2470,
      "ата": 2471,
      "бю": 2472,
      "гер": 2473,
      "глу": 2474,
      "голов": 2475,
      "лам": 2476,
      "муз": 2477,
      "мыш": 2478,
      "мобиль": 2479,
      "ном": 2480,
      "норм": 2481,
      "нхл": 2482,
      "означ": 2483,
      "рпл": 2484,
      "си": 2485,
      "сит": 2486,
      "сев": 2487,
      "сиби": 2488,
      "тан": 2489,
      "уч": 2490,
      "ура": 2491,
      "ужест": 2492,
      "худ": 2493,
      "чинов": 2494,
      "ши": 2495,
      "язы": 2496,
      "##арова": 2497,
      "##ич": 2498,
      "##лени": 2499,
      "##лений": 2500,
      "##еж": 2501,
      "##еше": 2502,
      "##кого": 2503,
      "##вать": 2504,
      "##гам": 2505,
      "##гля": 2506,
      "##ьте": 2507,
      "##ено": 2508,
      "##овой": 2509,
      "##овых": 2510,
      "##разов": 2511,
      "##ния": 2512,
      "##нице": 2513,
      "##ером": 2514,
      "##итализ": 2515,
      "##ела": 2516,
      "пор": 2517,
      "поэ": 2518,
      "##ату": 2519,
      "##оря": 2520,
      "засед": 2521,
      "##ссен": 2522,
      "ради": 2523,
      "##лай": 2524,
      "##образ": 2525,
      "стиму": 2526,
      "обс": 2527,
      "оборо": 2528,
      "##дается": 2529,
      "роста": 2530,
      "выше": 2531,
      "приговор": 2532,
      "##енты": 2533,
      "неодно": 2534,
      "предуп": 2535,
      "председ": 2536,
      "свер": 2537,
      "конечно": 2538,
      "##иха": 2539,
      "##хода": 2540,
      "допу": 2541,
      "спис": 2542,
      "компет": 2543,
      "москов": 2544,
      "новую": 2545,
      "этого": 2546,
      "сотрудниче": 2547,
      "миним": 2548,
      "##ике": 2549,
      "румы": 2550,
      "##екан": 2551,
      "осоз": 2552,
      "одной": 2553,
      "стране": 2554,
      "маш": 2555,
      "маду": 2556,
      "маши": 2557,
      "авт": 2558,
      "посел": 2559,
      "часто": 2560,
      "мессен": 2561,
      "таким": 2562,
      "объем": 2563,
      "закрыт": 2564,
      "повы": 2565,
      "##разд": 2566,
      "##ционные": 2567,
      "руководителя": 2568,
      "потер": 2569,
      "собой": 2570,
      "путеше": 2571,
      "слова": 2572,
      "граждане": 2573,
      "шенгенской": 2574,
      "отношения": 2575,
      "средства": 2576,
      "организов": 2577,
      "американский": 2578,
      "месяца": 2579,
      ">),": 2580,
      "которое": 2581,
      "счетом": 2582,
      "##вард": 2583,
      "офис": 2584,
      "организации": 2585,
      "атор": 2586,
      "атак": 2587,
      "петербург": 2588,
      "петербурге": 2589,
      "задач": 2590,
      "саббатикала": 2591,
      "соответствующ": 2592,
      "##ационный": 2593,
      "частности": 2594,
      "активов": 2595,
      "пары": 2596,
      "парла": 2597,
      "автомобиль": 2598,
      "членов": 2599,
      "финансиров": 2600,
      "состоянии": 2601,
      "уголовного": 2602,
      "большой": 2603,
      "затем": 2604,
      "имеет": 2605,
      "статье": 2606,
      "стратегиче": 2607,
      "крушения": 2608,
      "заверш": 2609,
      "насел": 2610,
      "отсут": 2611,
      "подтверд": 2612,
      "сентября": 2613,
      "захарова": 2614,
      "нефт": 2615,
      "лукойла": 2616,
      "боевых": 2617,
      "треть": 2618,
      "внимание": 2619,
      "удовлетвор": 2620,
      "кадров": 2621,
      "госпитализ": 2622,
      "деятельности": 2623,
      "менедж": 2624,
      "требования": 2625,
      "инфраструкту": 2626,
      "милли": 2627,
      "отдых": 2628,
      "андрей": 2629,
      "обвиняем": 2630,
      "экстремистской": 2631,
      "наказание": 2632,
      "августе": 2633,
      "бастион": 2634,
      "ассоциации": 2635,
      "взаимодейств": 2636,
      "скорее": 2637,
      "ошиб": 2638,
      "француз": 2639,
      "ламмерт": 2640,
      "ужесточ": 2641,
      "список": 2642,
      "мадуро": 2643,
      "госпитализировали": 2644,
      "аб": 2645,
      "ада": 2646,
      "вн": 2647,
      "губ": 2648,
      "зло": 2649,
      "кли": 2650,
      "кры": 2651,
      "кред": 2652,
      "кхл": 2653,
      "мид": 2654,
      "ней": 2655,
      "рф": 2656,
      "рел": 2657,
      "са": 2658,
      "сол": 2659,
      "серв": 2660,
      "удар": 2661,
      "учеб": 2662,
      "хок": 2663,
      "чув": 2664,
      "шой": 2665,
      "юж": 2666,
      "яп": 2667,
      "##аз": 2668,
      "##ади": 2669,
      "##бов": 2670,
      "##ием": 2671,
      "##останов": 2672,
      "##нд": 2673,
      "##ук": 2674,
      "##уется": 2675,
      "##рю": 2676,
      "##ее": 2677,
      "##мени": 2678,
      "##сет": 2679,
      "##сом": 2680,
      "##смен": 2681,
      "##чного": 2682,
      "##пла": 2683,
      "##во": 2684,
      "##щей": 2685,
      "##щем": 2686,
      "##ьи": 2687,
      "##шли": 2688,
      "##форт": 2689,
      "##фициров": 2690,
      "##енный": 2691,
      "##нила": 2692,
      "##рот": 2693,
      "##еля": 2694,
      "пои": 2695,
      "поряд": 2696,
      "##атом": 2697,
      "##анную": 2698,
      "##цией": 2699,
      "##цидент": 2700,
      "заказ": 2701,
      "завод": 2702,
      "##онах": 2703,
      "рак": 2704,
      "рав": 2705,
      "раск": 2706,
      "##рует": 2707,
      "проп": 2708,
      "прояв": 2709,
      "промышлен": 2710,
      "над": 2711,
      "народ": 2712,
      "##ларов": 2713,
      "##кив": 2714,
      "сте": 2715,
      "стаб": 2716,
      "реб": 2717,
      "реализ": 2718,
      "выз": 2719,
      "прис": 2720,
      "приоб": 2721,
      "приостанов": 2722,
      "##ческие": 2723,
      "россией": 2724,
      "##авлив": 2725,
      "комфорт": 2726,
      "подоб": 2727,
      "##нев": 2728,
      "размер": 2729,
      "различ": 2730,
      "инцидент": 2731,
      "##ляра": 2732,
      "##ляют": 2733,
      "спрос": 2734,
      "##част": 2735,
      "новости": 2736,
      "заявление": 2737,
      "заявителей": 2738,
      "рус": 2739,
      "##люд": 2740,
      "##ственного": 2741,
      "##лена": 2742,
      "##директ": 2743,
      "##чины": 2744,
      "самым": 2745,
      "##няя": 2746,
      "дви": 2747,
      "дела": 2748,
      "начал": 2749,
      "сумер": 2750,
      "существенно": 2751,
      "телекан": 2752,
      "данных": 2753,
      "совет": 2754,
      "современ": 2755,
      "совещ": 2756,
      "вари": 2757,
      "повест": 2758,
      "##дарт": 2759,
      "экст": 2760,
      "места": 2761,
      "месте": 2762,
      "тради": 2763,
      "призна": 2764,
      "призыв": 2765,
      "оконч": 2766,
      "соглашение": 2767,
      "геншта": 2768,
      "гендирект": 2769,
      "больниц": 2770,
      "##ателем": 2771,
      "матче": 2772,
      "возможности": 2773,
      "уволь": 2774,
      "управление": 2775,
      "техниче": 2776,
      "рубио": 2777,
      "пуст": 2778,
      "родствен": 2779,
      "##ница": 2780,
      "##инге": 2781,
      "сделал": 2782,
      "задержан": 2783,
      "арт": 2784,
      "минздрав": 2785,
      "##мотря": 2786,
      "##мотрен": 2787,
      "##давать": 2788,
      "считают": 2789,
      "находятся": 2790,
      "предложение": 2791,
      "туристов": 2792,
      "москва": 2793,
      "целе": 2794,
      "##жащих": 2795,
      "документе": 2796,
      "владимира": 2797,
      "рыно": 2798,
      "долларов": 2799,
      "киева": 2800,
      "семей": 2801,
      "тому": 2802,
      "##ождения": 2803,
      "назыв": 2804,
      "произошел": 2805,
      "перевод": 2806,
      "перевоз": 2807,
      "издания": 2808,
      "санкции": 2809,
      "уточнил": 2810,
      "прошлом": 2811,
      "необходим": 2812,
      "риски": 2813,
      "##ающих": 2814,
      "помощью": 2815,
      "системы": 2816,
      "обеспечения": 2817,
      "блог": 2818,
      "хотя": 2819,
      "набрал": 2820,
      "рассказал": 2821,
      "звон": 2822,
      "значитель": 2823,
      "июне": 2824,
      "планиров": 2825,
      "прокуро": 2826,
      "директор": 2827,
      "моря": 2828,
      "несмотря": 2829,
      "евросоюза": 2830,
      "совершен": 2831,
      "сборной": 2832,
      "поколение": 2833,
      "этим": 2834,
      "похит": 2835,
      "обсужд": 2836,
      "видео": 2837,
      "дагестане": 2838,
      "зумеры": 2839,
      "дональд": 2840,
      "шахт": 2841,
      "предусмотрен": 2842,
      "позицию": 2843,
      "арестов": 2844,
      "женщ": 2845,
      "депутат": 2846,
      "федерации": 2847,
      "известно": 2848,
      "объектов": 2849,
      "матчах": 2850,
      "ближай": 2851,
      "принадлежит": 2852,
      "почему": 2853,
      "логи": 2854,
      "##ступа": 2855,
      "кизляра": 2856,
      "кубка": 2857,
      "процед": 2858,
      "пассажи": 2859,
      "жизнь": 2860,
      "кодекса": 2861,
      "избербаш": 2862,
      "хатта": 2863,
      "##аточно": 2864,
      "предприним": 2865,
      "овечкин": 2866,
      "товаров": 2867,
      "поэтому": 2868,
      "##лайн": 2869,
      "отдыха": 2870,
      "внед": 2871,
      "сервис": 2872,
      "шойгу": 2873,
      "акт": 2874,
      "ачи": 2875,
      "би": 2876,
      "бар": 2877,
      "вд": 2878,
      "вил": 2879,
      "вход": 2880,
      "ге": 2881,
      "жив": 2882,
      "жителя": 2883,
      "зону": 2884,
      "зелен": 2885,
      "ит": 2886,
      "имп": 2887,
      "кар": 2888,
      "как": 2889,
      "лок": 2890,
      "мень": 2891,
      "меры": 2892,
      "ори": 2893,
      "опас": 2894,
      "сы": 2895,
      "сей": 2896,
      "тре": 2897,
      "тест": 2898,
      "ува": 2899,
      "фоне": 2900,
      "фун": 2901,
      "шары": 2902,
      "эмо": 2903,
      "эмп": 2904,
      "##тсб": 2905,
      "##без": 2906,
      "##иции": 2907,
      "##оу": 2908,
      "##оном": 2909,
      "##нр": 2910,
      "##нение": 2911,
      "##нания": 2912,
      "##уне": 2913,
      "##ече": 2914,
      "##крет": 2915,
      "##дут": 2916,
      "##чные": 2917,
      "##чный": 2918,
      "##пора": 2919,
      "##хани": 2920,
      "##хождения": 2921,
      "##вол": 2922,
      "##щий": 2923,
      "##гда": 2924,
      "##ыду": 2925,
      "##яется": 2926,
      "##ьез": 2927,
      "##жать": 2928,
      "##ждает": 2929,
      "##фика": 2930,
      "##ъяв": 2931,
      "##енной": 2932,
      "##енности": 2933,
      "##енос": 2934,
      "##стка": 2935,
      "##овали": 2936,
      "##нод": 2937,
      "##ните": 2938,
      "##ником": 2939,
      "поро": 2940,
      "поле": 2941,
      "поступ": 2942,
      "постоя": 2943,
      "пораж": 2944,
      "##ресс": 2945,
      "##орий": 2946,
      "##анс": 2947,
      "##илов": 2948,
      "##отрей": 2949,
      "зако": 2950,
      "закуп": 2951,
      "##ствии": 2952,
      "##кая": 2953,
      "##кации": 2954,
      "сократ": 2955,
      "##едом": 2956,
      "настоя": 2957,
      "наза": 2958,
      "##кими": 2959,
      "##кистан": 2960,
      "прев": 2961,
      "преж": 2962,
      "прежде": 2963,
      "##емон": 2964,
      "обстоятель": 2965,
      "##ениях": 2966,
      "восто": 2967,
      "рек": 2968,
      "реест": 2969,
      "##изации": 2970,
      "выраз": 2971,
      "приб": 2972,
      "причин": 2973,
      "##чез": 2974,
      "##спектив": 2975,
      "перест": 2976,
      "перспектив": 2977,
      "##ующего": 2978,
      "##ковой": 2979,
      "комитет": 2980,
      "комитета": 2981,
      "##альными": 2982,
      "##акон": 2983,
      "подчин": 2984,
      "##ороз": 2985,
      "##локиров": 2986,
      "предыду": 2987,
      "конкрет": 2988,
      "сообщение": 2989,
      "##раторов": 2990,
      "##лял": 2991,
      "дост": 2992,
      "справ": 2993,
      "возб": 2994,
      "возгла": 2995,
      "новой": 2996,
      "заявили": 2997,
      "##ленных": 2998,
      "работа": 2999,
      "работает": 3000,
      "работников": 3001,
      "##станавлив": 3002,
      "одоб": 3003,
      "российская": 3004,
      "страх": 3005,
      "самых": 3006,
      "##ические": 3007,
      "запрос": 3008,
      "##ировал": 3009,
      "##ировки": 3010,
      "пособ": 3011,
      "получать": 3012,
      "получили": 3013,
      "орга": 3014,
      "следствия": 3015,
      "следствие": 3016,
      "совета": 3017,
      "действие": 3018,
      "повлия": 3019,
      "первого": 3020,
      "сборах": 3021,
      "украинского": 3022,
      "взгля": 3023,
      "##никам": 3024,
      "решении": 3025,
      "перес": 3026,
      "передав": 3027,
      "##кратно": 3028,
      "пути": 3029,
      "туре": 3030,
      "плат": 3031,
      "увид": 3032,
      "уведом": 3033,
      "управлен": 3034,
      "рассчит": 3035,
      "относят": 3036,
      "встречу": 3037,
      "родителей": 3038,
      "резерве": 3039,
      "недел": 3040,
      "##нистратив": 3041,
      "направил": 3042,
      "спортсмен": 3043,
      "район": 3044,
      "крупней": 3045,
      "конферен": 3046,
      "всей": 3047,
      "венгрия": 3048,
      "обви": 3049,
      "региона": 3050,
      "региональ": 3051,
      "использовать": 3052,
      "петербурга": 3053,
      "уровне": 3054,
      "документов": 3055,
      "задачи": 3056,
      "потребности": 3057,
      "детей": 3058,
      "второ": 3059,
      "гарант": 3060,
      "онлайн": 3061,
      "необходимо": 3062,
      "необходимости": 3063,
      "алексей": 3064,
      "риа": 3065,
      "кварт": 3066,
      "##служб": 3067,
      "электро": 3068,
      "стоит": 3069,
      "стоимость": 3070,
      "привлек": 3071,
      "блокиров": 3072,
      "##лировать": 3073,
      "режима": 3074,
      "стратегия": 3075,
      "специалисты": 3076,
      "исчез": 3077,
      "поездок": 3078,
      "сезон": 3079,
      "проходить": 3080,
      "правительства": 3081,
      "мужчину": 3082,
      "вице": 3083,
      "медици": 3084,
      "апрел": 3085,
      "государственной": 3086,
      "дальней": 3087,
      "жизни": 3088,
      "камчат": 3089,
      "белорус": 3090,
      "чемпионата": 3091,
      "рейс": 3092,
      "формиров": 3093,
      "полиции": 3094,
      "самостоятель": 3095,
      "орбана": 3096,
      "торговли": 3097,
      "пунктов": 3098,
      "ними": 3099,
      "этих": 3100,
      "однократ": 3101,
      "лукойл": 3102,
      "узбе": 3103,
      "выплаты": 3104,
      "законодательства": 3105,
      "административ": 3106,
      "воздушное": 3107,
      "декабря": 3108,
      "арендов": 3109,
      "эксперты": 3110,
      "клуба": 3111,
      "инвестиций": 3112,
      "начальник": 3113,
      "криптотрей": 3114,
      "ключевых": 3115,
      "довер": 3116,
      "оружия": 3117,
      "незакон": 3118,
      "возвращения": 3119,
      "площад": 3120,
      "очередь": 3121,
      "освобождение": 3122,
      "альян": 3123,
      "воспри": 3124,
      "расшир": 3125,
      "магнит": 3126,
      "оценив": 3127,
      "робот": 3128,
      "построить": 3129,
      "инструмент": 3130,
      "аналоги": 3131,
      "относительно": 3132,
      "долгосроч": 3133,
      "здоровья": 3134,
      "белоруссии": 3135,
      "питтсб": 3136,
      "элем": 3137,
      "написал": 3138,
      "спецслужб": 3139,
      "ожидания": 3140,
      "мышление": 3141,
      "означает": 3142,
      "ситил": 3143,
      "худож": 3144,
      "неоднократно": 3145,
      "поселка": 3146,
      "губерн": 3147,
      "солне": 3148,
      "стабиль": 3149,
      "эмпат": 3150,
      "постоян": 3151,
      "питтсбур": 3152,
      "ам": 3153,
      "акту": 3154,
      "бот": 3155,
      "бон": 3156,
      "вел": 3157,
      "голо": 3158,
      "еди": 3159,
      "жал": 3160,
      "зол": 3161,
      "ино": 3162,
      "кни": 3163,
      "лат": 3164,
      "май": 3165,
      "ох": 3166,
      "оли": 3167,
      "празд": 3168,
      "се": 3169,
      "сми": 3170,
      "срав": 3171,
      "смен": 3172,
      "сиг": 3173,
      "сад": 3174,
      "ти": 3175,
      "тон": 3176,
      "твор": 3177,
      "улу": 3178,
      "уран": 3179,
      "устанавлив": 3180,
      "фсб": 3181,
      "хоро": 3182,
      "цит": 3183,
      "ша": 3184,
      "эп": 3185,
      "этому": 3186,
      "##тен": 3187,
      "##ими": 3188,
      "##игра": 3189,
      "##лением": 3190,
      "##нему": 3191,
      "##рпл": 3192,
      "##еш": 3193,
      "##есед": 3194,
      "##мей": 3195,
      "##сли": 3196,
      "##кина": 3197,
      "##йт": 3198,
      "##дера": 3199,
      "##пп": 3200,
      "##ху": 3201,
      "##хват": 3202,
      "##гатив": 3203,
      "##ясь": 3204,
      "##ждают": 3205,
      "##шт": 3206,
      "##шению": 3207,
      "##фа": 3208,
      "##енное": 3209,
      "##енная": 3210,
      "##стер": 3211,
      "##ового": 3212,
      "##ование": 3213,
      "##раб": 3214,
      "##раст": 3215,
      "##нию": 3216,
      "##еты": 3217,
      "поми": 3218,
      "помещ": 3219,
      "подавать": 3220,
      "##ормиров": 3221,
      "##оду": 3222,
      "##гого": 3223,
      "зару": 3224,
      "замест": 3225,
      "запад": 3226,
      "зарпл": 3227,
      "##сяти": 3228,
      "##ингов": 3229,
      "##анией": 3230,
      "##еда": 3231,
      "прос": 3232,
      "проком": 3233,
      "прожив": 3234,
      "наиб": 3235,
      "накан": 3236,
      "прекращ": 3237,
      "##ива": 3238,
      "стрем": 3239,
      "обнов": 3240,
      "обслу": 3241,
      "##ликов": 3242,
      "розы": 3243,
      "восточ": 3244,
      "выстра": 3245,
      "приказ": 3246,
      "привод": 3247,
      "##чек": 3248,
      "первер": 3249,
      "перенос": 3250,
      "##тое": 3251,
      "неиз": 3252,
      "негатив": 3253,
      "годам": 3254,
      "##лось": 3255,
      "предп": 3256,
      "предъяв": 3257,
      "##лья": 3258,
      "разру": 3259,
      "##козам": 3260,
      "##ляции": 3261,
      "##ительной": 3262,
      "мощ": 3263,
      "министра": 3264,
      "капит": 3265,
      "заявителя": 3266,
      "опрошен": 3267,
      "работод": 3268,
      "##росили": 3269,
      "одним": 3270,
      "одну": 3271,
      "российским": 3272,
      "российскими": 3273,
      "самые": 3274,
      "летом": 3275,
      "мага": 3276,
      "провели": 3277,
      "##ическим": 3278,
      "делает": 3279,
      "получения": 3280,
      "меж": 3281,
      "##сад": 3282,
      "начать": 3283,
      "десяти": 3284,
      "табли": 3285,
      "пад": 3286,
      "закры": 3287,
      "повыс": 3288,
      "первом": 3289,
      "##ционного": 3290,
      "руководител": 3291,
      "руководителей": 3292,
      "руководители": 3293,
      "тока": 3294,
      "##ервью": 3295,
      "анны": 3296,
      "украинских": 3297,
      "вероят": 3298,
      "развивать": 3299,
      "усили": 3300,
      "переход": 3301,
      "убили": 3302,
      "собесед": 3303,
      "##умыш": 3304,
      "диало": 3305,
      "канал": 3306,
      "интервью": 3307,
      "граждани": 3308,
      "использ": 3309,
      "использу": 3310,
      "скоро": 3311,
      "составе": 3312,
      "информацион": 3313,
      "американской": 3314,
      "последнее": 3315,
      "серьез": 3316,
      "задержаны": 3317,
      "минут": 3318,
      "##шелек": 3319,
      "крупных": 3320,
      "поддержки": 3321,
      "бизнесмен": 3322,
      "сотрудниками": 3323,
      "проверку": 3324,
      "туристиче": 3325,
      "туристы": 3326,
      "##дельца": 3327,
      "стандарт": 3328,
      "москве": 3329,
      "силу": 3330,
      "целом": 3331,
      "веще": 3332,
      "уровня": 3333,
      "акцион": 3334,
      "рыб": 3335,
      "ситуацию": 3336,
      "ситуация": 3337,
      "пись": 3338,
      "операций": 3339,
      "случаев": 3340,
      "случаях": 3341,
      "убийства": 3342,
      "контроля": 3343,
      "резервистов": 3344,
      "готовы": 3345,
      "прошл": 3346,
      "выбор": 3347,
      "##проект": 3348,
      "##яжении": 3349,
      "строитель": 3350,
      "большин": 3351,
      "корре": 3352,
      "нужны": 3353,
      "ранения": 3354,
      "факторы": 3355,
      "росликов": 3356,
      "оказался": 3357,
      "законопроект": 3358,
      "специалистов": 3359,
      "исраф": 3360,
      "инвесторов": 3361,
      "следующих": 3362,
      "рассказали": 3363,
      "рассказала": 3364,
      "лидером": 3365,
      "роман": 3366,
      "удары": 3367,
      "изменения": 3368,
      "увеличить": 3369,
      "войны": 3370,
      "вместо": 3371,
      "ядерного": 3372,
      "ведомства": 3373,
      "запуск": 3374,
      "директора": 3375,
      "китая": 3376,
      "пяти": 3377,
      "вооруженных": 3378,
      "ресурсов": 3379,
      "особенно": 3380,
      "поколения": 3381,
      "генерального": 3382,
      "генеральный": 3383,
      "класс": 3384,
      "защиты": 3385,
      "передачу": 3386,
      "официально": 3387,
      "официальный": 3388,
      "казахстана": 3389,
      "купян": 3390,
      "##овалют": 3391,
      "понять": 3392,
      "национальной": 3393,
      "выплат": 3394,
      "напря": 3395,
      "наркотиков": 3396,
      "далекин": 3397,
      "занят": 3398,
      "январ": 3399,
      "разреш": 3400,
      "криптовалют": 3401,
      "черном": 3402,
      "рабочих": 3403,
      "доставили": 3404,
      "угрозы": 3405,
      "аэропорт": 3406,
      "длительный": 3407,
      "категории": 3408,
      "площади": 3409,
      "подразделения": 3410,
      "венесуэлы": 3411,
      "школ": 3412,
      "шайбу": 3413,
      "комиссии": 3414,
      "криптоко": 3415,
      "прям": 3416,
      "партнер": 3417,
      "перечень": 3418,
      "следователи": 3419,
      "рынке": 3420,
      "фонтанка": 3421,
      "алкозам": 3422,
      "продукт": 3423,
      "возбуждено": 3424,
      "террористиче": 3425,
      "прокуратура": 3426,
      "некоторые": 3427,
      "азии": 3428,
      "берегов": 3429,
      "ореха": 3430,
      "просьбой": 3431,
      "крайне": 3432,
      "характер": 3433,
      "швейц": 3434,
      "##нюю": 3435,
      "дипломат": 3436,
      "обязанности": 3437,
      "бюдж": 3438,
      "урана": 3439,
      "компетен": 3440,
      "осозна": 3441,
      "машины": 3442,
      "миллиар": 3443,
      "злоумыш": 3444,
      "релиз": 3445,
      "ребен": 3446,
      "внедр": 3447,
      "функ": 3448,
      "органы": 3449,
      "относятся": 3450,
      "неделю": 3451,
      "медицин": 3452,
      "велик": 3453,
      "улуч": 3454,
      "зарубеж": 3455,
      "прокоммент": 3456,
      "накануне": 3457,
      "обслужив": 3458,
      "магаз": 3459,
      "таблице": 3460,
      "злоумышлен": 3461,
      "ано": 3462,
      "альт": 3463,
      "бер": 3464,
      "бла": 3465,
      "бель": 3466,
      "бума": 3467,
      "вра": 3468,
      "ги": 3469,
      "гу": 3470,
      "гри": 3471,
      "гиб": 3472,
      "дает": 3473,
      "дуб": 3474,
      "днем": 3475,
      "есть": 3476,
      "еже": 3477,
      "жителей": 3478,
      "жерт": 3479,
      "зрения": 3480,
      "ил": 3481,
      "кэ": 3482,
      "кре": 3483,
      "коро": 3484,
      "кора": 3485,
      "кос": 3486,
      "ката": 3487,
      "мэ": 3488,
      "мер": 3489,
      "мск": 3490,
      "нел": 3491,
      "них": 3492,
      "оник": 3493,
      "пыт": 3494,
      "пху": 3495,
      "сен": 3496,
      "смер": 3497,
      "сая": 3498,
      "сами": 3499,
      "смерт": 3500,
      "сможет": 3501,
      "ты": 3502,
      "тов": 3503,
      "тай": 3504,
      "унич": 3505,
      "уверен": 3506,
      "фра": 3507,
      "физ": 3508,
      "хоз": 3509,
      "цик": 3510,
      "цели": 3511,
      "чьи": 3512,
      "шест": 3513,
      "юри": 3514,
      "##ту": 3515,
      "##ас": 3516,
      "##иц": 3517,
      "##ино": 3518,
      "##лят": 3519,
      "##зис": 3520,
      "##змы": 3521,
      "##цов": 3522,
      "##цент": 3523,
      "##огра": 3524,
      "##нал": 3525,
      "##нат": 3526,
      "##мом": 3527,
      "##се": 3528,
      "##сф": 3529,
      "##кции": 3530,
      "##дется": 3531,
      "##щит": 3532,
      "##щие": 3533,
      "##ыск": 3534,
      "##яют": 3535,
      "##ящен": 3536,
      "##ьше": 3537,
      "##ющего": 3538,
      "##шки": 3539,
      "##шая": 3540,
      "##шком": 3541,
      "##шений": 3542,
      "##фер": 3543,
      "##енным": 3544,
      "##стит": 3545,
      "##рабат": 3546,
      "##нина": 3547,
      "##нику": 3548,
      "##ерий": 3549,
      "##роб": 3550,
      "##роз": 3551,
      "##еллект": 3552,
      "поля": 3553,
      "посте": 3554,
      "##скор": 3555,
      "##анным": 3556,
      "##анный": 3557,
      "##гон": 3558,
      "##циони": 3559,
      "зад": 3560,
      "##ствовать": 3561,
      "##карт": 3562,
      "##рут": 3563,
      "##едлив": 3564,
      "##миз": 3565,
      "нами": 3566,
      "напа": 3567,
      "##лав": 3568,
      "##лачив": 3569,
      "##кипа": 3570,
      "##ивших": 3571,
      "##ившие": 3572,
      "стат": 3573,
      "стали": 3574,
      "студ": 3575,
      "##ровать": 3576,
      "обмен": 3577,
      "обще": 3578,
      "##дая": 3579,
      "##наб": 3580,
      "отече": 3581,
      "вось": 3582,
      "револ": 3583,
      "##изн": 3584,
      "##изод": 3585,
      "выдел": 3586,
      "выну": 3587,
      "вывод": 3588,
      "вышел": 3589,
      "выигра": 3590,
      "привед": 3591,
      "##ческих": 3592,
      "россию": 3593,
      "##спект": 3594,
      "##спондент": 3595,
      "персон": 3596,
      "##авис": 3597,
      "коммента": 3598,
      "##аря": 3599,
      "неу": 3600,
      "##тек": 3601,
      "разря": 3602,
      "развер": 3603,
      "##кус": 3604,
      "свет": 3605,
      "свид": 3606,
      "##лев": 3607,
      "конку": 3608,
      "констру": 3609,
      "##кость": 3610,
      "##ходы": 3611,
      "досроч": 3612,
      "спи": 3613,
      "спут": 3614,
      "компанией": 3615,
      "##ывается": 3616,
      "изуч": 3617,
      "измени": 3618,
      "каче": 3619,
      "такое": 3620,
      "##ерами": 3621,
      "военным": 3622,
      "военный": 3623,
      "военком": 3624,
      "##тации": 3625,
      "госс": 3626,
      "осень": 3627,
      "лиги": 3628,
      "линии": 3629,
      "летнего": 3630,
      "провел": 3631,
      "##ический": 3632,
      "##шествия": 3633,
      "президентом": 3634,
      "##держив": 3635,
      "посет": 3636,
      "посад": 3637,
      "двум": 3638,
      "правило": 3639,
      "россияне": 3640,
      "россиянин": 3641,
      "суда": 3642,
      "##очет": 3643,
      "##олож": 3644,
      "должность": 3645,
      "первой": 3646,
      "первые": 3647,
      "первое": 3648,
      "руководством": 3649,
      "##формы": 3650,
      "своим": 3651,
      "ант": 3652,
      "анализ": 3653,
      "собра": 3654,
      "событ": 3655,
      "связанные": 3656,
      "передал": 3657,
      "диск": 3658,
      "туроп": 3659,
      "больших": 3660,
      "област": 3661,
      "интеллект": 3662,
      "противо": 3663,
      "сказала": 3664,
      "шенгенского": 3665,
      "шенгенские": 3666,
      "сроком": 3667,
      "скла": 3668,
      "ограничений": 3669,
      "##итесь": 3670,
      "специальных": 3671,
      "американского": 3672,
      "государств": 3673,
      "кризис": 3674,
      "недо": 3675,
      "турции": 3676,
      "вопросам": 3677,
      "центре": 3678,
      "направления": 3679,
      "котором": 3680,
      "крупной": 3681,
      "проекты": 3682,
      "##варти": 3683,
      "команде": 3684,
      "поддерживать": 3685,
      "европе": 3686,
      "упал": 3687,
      "упало": 3688,
      "игро": 3689,
      "игры": 3690,
      "личность": 3691,
      "позиции": 3692,
      "мужчины": 3693,
      "##ифика": 3694,
      "акции": 3695,
      "ситуаци": 3696,
      "задачу": 3697,
      "киев": 3698,
      "общей": 3699,
      "соответствии": 3700,
      "создания": 3701,
      "убийство": 3702,
      "уточнили": 3703,
      "подготовки": 3704,
      "подготовку": 3705,
      "объявил": 3706,
      "объявила": 3707,
      "заключил": 3708,
      "здания": 3709,
      "строить": 3710,
      "отпуска": 3711,
      "имя": 3712,
      "иметь": 3713,
      "коррект": 3714,
      "раньше": 3715,
      "принци": 3716,
      "помощи": 3717,
      "помощь": 3718,
      "бури": 3719,
      "поставки": 3720,
      "переговоров": 3721,
      "молодые": 3722,
      "инвесторами": 3723,
      "следующие": 3724,
      "условиях": 3725,
      "лидеров": 3726,
      "штраф": 3727,
      "продажи": 3728,
      "правительство": 3729,
      "влияют": 3730,
      "##ехать": 3731,
      "проблему": 3732,
      "##раться": 3733,
      "произошед": 3734,
      "сохра": 3735,
      "обыгра": 3736,
      "обычно": 3737,
      "подозр": 3738,
      "технологий": 3739,
      "ведомство": 3740,
      "дополнительные": 3741,
      "мнение": 3742,
      "погиб": 3743,
      "проводит": 3744,
      "запуст": 3745,
      "домаш": 3746,
      "чемпионат": 3747,
      "сниж": 3748,
      "военнослу": 3749,
      "играх": 3750,
      "тренер": 3751,
      "создает": 3752,
      "происшествия": 3753,
      "нефти": 3754,
      "консульт": 3755,
      "участники": 3756,
      "регулярно": 3757,
      "дагестана": 3758,
      "истории": 3759,
      "купить": 3760,
      "многие": 3761,
      "подписал": 3762,
      "возраст": 3763,
      "беспилотников": 3764,
      "декабре": 3765,
      "банков": 3766,
      "дональда": 3767,
      "непос": 3768,
      "агентства": 3769,
      "инициативы": 3770,
      "удоволь": 3771,
      "программы": 3772,
      "приняла": 3773,
      "разрешения": 3774,
      "интернет": 3775,
      "интернете": 3776,
      "всего": 3777,
      "проблема": 3778,
      "проблемы": 3779,
      "ключевые": 3780,
      "итогам": 3781,
      "кучер": 3782,
      "ответственности": 3783,
      "ответственность": 3784,
      "фигурант": 3785,
      "борьбы": 3786,
      "смыс": 3787,
      "шайбы": 3788,
      "столк": 3789,
      "воинской": 3790,
      "границы": 3791,
      "планируют": 3792,
      "краснодар": 3793,
      "норвеж": 3794,
      "точки": 3795,
      "##сообраз": 3796,
      "состоится": 3797,
      "прогно": 3798,
      "оперативно": 3799,
      "бетельного": 3800,
      "единствен": 3801,
      "карьер": 3802,
      "трое": 3803,
      "саммита": 3804,
      "##нуться": 3805,
      "четверо": 3806,
      "нынешнем": 3807,
      "суток": 3808,
      "восстанов": 3809,
      "бывший": 3810,
      "девять": 3811,
      "лавров": 3812,
      "мероприятия": 3813,
      "пояснил": 3814,
      "сопровожд": 3815,
      "прибыль": 3816,
      "разговора": 3817,
      "телефонного": 3818,
      "технологического": 3819,
      "турнирной": 3820,
      "футбол": 3821,
      "константин": 3822,
      "ахмат": 3823,
      "минимум": 3824,
      "румынии": 3825,
      "парламента": 3826,
      "адап": 3827,
      "кредит": 3828,
      "япон": 3829,
      "заказов": 3830,
      "ракета": 3831,
      "приобрет": 3832,
      "размере": 3833,
      "совещание": 3834,
      "вариант": 3835,
      "традицион": 3836,
      "генштаба": 3837,
      "родственники": 3838,
      "целесообраз": 3839,
      "виллу": 3840,
      "итали": 3841,
      "ориент": 3842,
      "эмоцион": 3843,
      "назад": 3844,
      "турец": 3845,
      "районный": 3846,
      "конференции": 3847,
      "художника": 3848,
      "жалоб": 3849,
      "олимп": 3850,
      "эпизод": 3851,
      "помимо": 3852,
      "восточной": 3853,
      "опрошенных": 3854,
      "токаев": 3855,
      "собеседник": 3856,
      "корреспондент": 3857,
      "благо": 3858,
      "оникс": 3859,
      "пхукет": 3860,
      "смерти": 3861,
      "саяно": 3862,
      "уничто": 3863,
      "хозя": 3864,
      "револю": 3865,
      "бала": 3866,
      "быт": 3867,
      "брю": 3868,
      "бпла": 3869,
      "вст": 3870,
      "вет": 3871,
      "вей": 3872,
      "входит": 3873,
      "гал": 3874,
      "горя": 3875,
      "дер": 3876,
      "доро": 3877,
      "дис": 3878,
      "дале": 3879,
      "джа": 3880,
      "ер": 3881,
      "жест": 3882,
      "зр": 3883,
      "зен": 3884,
      "зоне": 3885,
      "зоны": 3886,
      "ии": 3887,
      "их": 3888,
      "крат": 3889,
      "ле": 3890,
      "лей": 3891,
      "лай": 3892,
      "мя": 3893,
      "мус": 3894,
      "мене": 3895,
      "миха": 3896,
      "нал": 3897,
      "ог": 3898,
      "оон": 3899,
      "пав": 3900,
      "рст": 3901,
      "рют": 3902,
      "сц": 3903,
      "сет": 3904,
      "сраз": 3905,
      "тю": 3906,
      "тера": 3907,
      "ток": 3908,
      "уф": 3909,
      "уст": 3910,
      "умер": 3911,
      "устран": 3912,
      "уйти": 3913,
      "хер": 3914,
      "хам": 3915,
      "хим": 3916,
      "хран": 3917,
      "хват": 3918,
      "цска": 3919,
      "чек": 3920,
      "экипа": 3921,
      "##ты": 3922,
      "##тер": 3923,
      "##ап": 3924,
      "##актив": 3925,
      "##исс": 3926,
      "##исп": 3927,
      "##лат": 3928,
      "##зе": 3929,
      "##цами": 3930,
      "##ощ": 3931,
      "##оков": 3932,
      "##нении": 3933,
      "##уй": 3934,
      "##ея": 3935,
      "##ераторов": 3936,
      "##мет": 3937,
      "##мин": 3938,
      "##сах": 3939,
      "##кей": 3940,
      "##ченных": 3941,
      "##члени": 3942,
      "##по": 3943,
      "##пам": 3944,
      "##пром": 3945,
      "##вин": 3946,
      "##вой": 3947,
      "##вящен": 3948,
      "##гл": 3949,
      "##гин": 3950,
      "##гах": 3951,
      "##ыгов": 3952,
      "##ыше": 3953,
      "##ял": 3954,
      "##яются": 3955,
      "##ящих": 3956,
      "##ьют": 3957,
      "##юст": 3958,
      "##жал": 3959,
      "##жут": 3960,
      "##жить": 3961,
      "##шка": 3962,
      "##шла": 3963,
      "##шив": 3964,
      "##шую": 3965,
      "##шев": 3966,
      "##шкин": 3967,
      "##енс": 3968,
      "##енко": 3969,
      "##енными": 3970,
      "##сторон": 3971,
      "##стриров": 3972,
      "##ово": 3973,
      "##рач": 3974,
      "##рами": 3975,
      "##ногра": 3976,
      "##ерин": 3977,
      "пода": 3978,
      "поло": 3979,
      "полаг": 3980,
      "поощ": 3981,
      "##реги": 3982,
      "##омп": 3983,
      "##орные": 3984,
      "##оритет": 3985,
      "##анов": 3986,
      "##олее": 3987,
      "##отреб": 3988,
      "##город": 3989,
      "замен": 3990,
      "зафик": 3991,
      "##кашен": 3992,
      "##инт": 3993,
      "##инской": 3994,
      "##руют": 3995,
      "соедин": 3996,
      "сорев": 3997,
      "союза": 3998,
      "сокращ": 3999,
      "##ейн": 4000,
      "прост": 4001,
      "пропу": 4002,
      "проиг": 4003,
      "продав": 4004,
      "прошел": 4005,
      "пройдет": 4006,
      "нак": 4007,
      "намер": 4008,
      "науч": 4009,
      "##лась": 4010,
      "##ладельца": 4011,
      "##обнов": 4012,
      "##обрит": 4013,
      "##ктуры": 4014,
      "прес": 4015,
      "прекрат": 4016,
      "препарат": 4017,
      "##иваться": 4018,
      "##ивший": 4019,
      "обе": 4020,
      "обман": 4021,
      "##ельного": 4022,
      "##награ": 4023,
      "отб": 4024,
      "отве": 4025,
      "отвеч": 4026,
      "регла": 4027,
      "выстав": 4028,
      "вымо": 4029,
      "вызв": 4030,
      "выяс": 4031,
      "выруч": 4032,
      "приход": 4033,
      "придется": 4034,
      "##способ": 4035,
      "перера": 4036,
      "перене": 4037,
      "##авлов": 4038,
      "комму": 4039,
      "##гиени": 4040,
      "##ард": 4041,
      "##армей": 4042,
      "##альная": 4043,
      "неоп": 4044,
      "неисп": 4045,
      "##лоу": 4046,
      "##ряс": 4047,
      "предел": 4048,
      "предло": 4049,
      "разных": 4050,
      "разме": 4051,
      "свыше": 4052,
      "конта": 4053,
      "иннов": 4054,
      "инстит": 4055,
      "##коп": 4056,
      "##ляется": 4057,
      "##ительные": 4058,
      "##ительности": 4059,
      "компанию": 4060,
      "##чами": 4061,
      "##моч": 4062,
      "##мосф": 4063,
      "возле": 4064,
      "возника": 4065,
      "возобнов": 4066,
      "вознагра": 4067,
      "ново": 4068,
      "новым": 4069,
      "##пара": 4070,
      "##ывая": 4071,
      "изнач": 4072,
      "сотруднику": 4073,
      "сотрудником": 4074,
      "мида": 4075,
      "заявители": 4076,
      "заявлении": 4077,
      "опти": 4078,
      "военном": 4079,
      "гост": 4080,
      "визит": 4081,
      "работают": 4082,
      "##ектора": 4083,
      "российском": 4084,
      "российско": 4085,
      "##чиков": 4086,
      "летело": 4087,
      "мае": 4088,
      "маска": 4089,
      "мария": 4090,
      "провести": 4091,
      "##дум": 4092,
      "запорож": 4093,
      "##гами": 4094,
      "##гаем": 4095,
      "украина": 4096,
      "##ирован": 4097,
      "посвящен": 4098,
      "дво": 4099,
      "двое": 4100,
      "исправ": 4101,
      "теории": 4102,
      "теория": 4103,
      "суб": 4104,
      "суверен": 4105,
      "##исты": 4106,
      "график": 4107,
      "##ющим": 4108,
      "пару": 4109,
      "пасен": 4110,
      "совладельца": 4111,
      "полный": 4112,
      "закреп": 4113,
      "должности": 4114,
      "повер": 4115,
      "повед": 4116,
      "поводу": 4117,
      "топл": 4118,
      "##ослед": 4119,
      "##основ": 4120,
      "##ервые": 4121,
      "судов": 4122,
      "судна": 4123,
      "верну": 4124,
      "версии": 4125,
      "развив": 4126,
      "услу": 4127,
      "взно": 4128,
      "решить": 4129,
      "решений": 4130,
      "убед": 4131,
      "##агнит": 4132,
      "расчлени": 4133,
      "друг": 4134,
      "выдают": 4135,
      "протяжении": 4136,
      "говорит": 4137,
      "говорил": 4138,
      "путем": 4139,
      "генпро": 4140,
      "основных": 4141,
      "основным": 4142,
      "основании": 4143,
      "облад": 4144,
      "матч": 4145,
      "##станом": 4146,
      "техники": 4147,
      "колеб": 4148,
      "срока": 4149,
      "склад": 4150,
      "средний": 4151,
      "американским": 4152,
      "государство": 4153,
      "четко": 4154,
      "недели": 4155,
      "середин": 4156,
      "покину": 4157,
      "петроп": 4158,
      "центр": 4159,
      "находились": 4160,
      "которой": 4161,
      "признали": 4162,
      "признана": 4163,
      "крупные": 4164,
      "группа": 4165,
      "поддержку": 4166,
      "европы": 4167,
      "упро": 4168,
      "упла": 4169,
      "игр": 4170,
      "офз": 4171,
      "достичь": 4172,
      "достижения": 4173,
      "личного": 4174,
      "личный": 4175,
      "марте": 4176,
      "станут": 4177,
      "подчеркив": 4178,
      "запретить": 4179,
      "продолжается": 4180,
      "атмосф": 4181,
      "веществ": 4182,
      "использовании": 4183,
      "страну": 4184,
      "источников": 4185,
      "транс": 4186,
      "##ируется": 4187,
      "##ернатив": 4188,
      "##уются": 4189,
      "потребность": 4190,
      "дети": 4191,
      "кино": 4192,
      "лукашен": 4193,
      "назем": 4194,
      "респондент": 4195,
      "группой": 4196,
      "группировки": 4197,
      "соответствует": 4198,
      "создать": 4199,
      "частей": 4200,
      "уточняет": 4201,
      "прошед": 4202,
      "прошло": 4203,
      "производства": 4204,
      "производство": 4205,
      "члены": 4206,
      "исключения": 4207,
      "обвинения": 4208,
      "обвинение": 4209,
      "замет": 4210,
      "##лагод": 4211,
      "открыто": 4212,
      "квали": 4213,
      "требует": 4214,
      "электрон": 4215,
      "росатом": 4216,
      "принять": 4217,
      "налоговой": 4218,
      "система": 4219,
      "блоки": 4220,
      "остается": 4221,
      "остальные": 4222,
      "форму": 4223,
      "поставок": 4224,
      "заблокиров": 4225,
      "наблюд": 4226,
      "режиме": 4227,
      "главного": 4228,
      "переговорах": 4229,
      "специалиста": 4230,
      "транспорта": 4231,
      "инвестора": 4232,
      "следующий": 4233,
      "трампу": 4234,
      "запрещена": 4235,
      "конфликтов": 4236,
      "июле": 4237,
      "июня": 4238,
      "удара": 4239,
      "проходят": 4240,
      "индии": 4241,
      "международных": 4242,
      "международной": 4243,
      "викт": 4244,
      "трампом": 4245,
      "произошла": 4246,
      "вашингтона": 4247,
      "аппарат": 4248,
      "дальше": 4249,
      "франции": 4250,
      "обязатель": 4251,
      "принимать": 4252,
      "команду": 4253,
      "частично": 4254,
      "собственных": 4255,
      "собственные": 4256,
      "пакета": 4257,
      "сниз": 4258,
      "отдельные": 4259,
      "выступать": 4260,
      "играл": 4261,
      "класси": 4262,
      "сентябре": 4263,
      "##нинг": 4264,
      "похищ": 4265,
      "происход": 4266,
      "происходит": 4267,
      "преступления": 4268,
      "обсуждения": 4269,
      "авиак": 4270,
      "планах": 4271,
      "регулярного": 4272,
      "истор": 4273,
      "лучше": 4274,
      "утвержд": 4275,
      "понят": 4276,
      "возрасте": 4277,
      "администра": 4278,
      "волк": 4279,
      "идеи": 4280,
      "метод": 4281,
      "нигера": 4282,
      "третий": 4283,
      "предусматрив": 4284,
      "участвовать": 4285,
      "практически": 4286,
      "понимать": 4287,
      "господ": 4288,
      "начальника": 4289,
      "деятельность": 4290,
      "всеми": 4291,
      "эффективность": 4292,
      "федераль": 4293,
      "желез": 4294,
      "итоге": 4295,
      "успеш": 4296,
      "учета": 4297,
      "учетом": 4298,
      "независ": 4299,
      "инфраструктуры": 4300,
      "фигури": 4301,
      "впервые": 4302,
      "школь": 4303,
      "##штаб": 4304,
      "пожар": 4305,
      "пожизн": 4306,
      "доступны": 4307,
      "участия": 4308,
      "красноармей": 4309,
      "исследований": 4310,
      "анапе": 4311,
      "литов": 4312,
      "прило": 4313,
      "прямо": 4314,
      "отчетности": 4315,
      "призвал": 4316,
      "министерство": 4317,
      "мошенничество": 4318,
      "содержание": 4319,
      "бесс": 4320,
      "планы": 4321,
      "плазмы": 4322,
      "публикации": 4323,
      "троих": 4324,
      "навыки": 4325,
      "обучение": 4326,
      "болга": 4327,
      "##агиров": 4328,
      "нагрузки": 4329,
      "мировой": 4330,
      "существует": 4331,
      "полномоч": 4332,
      "помогает": 4333,
      "журналист": 4334,
      "правоохранительные": 4335,
      "тяжелом": 4336,
      "дивизионе": 4337,
      "дивизиона": 4338,
      "думаешь": 4339,
      "кремле": 4340,
      "ожидается": 4341,
      "##реждений": 4342,
      "выросла": 4343,
      "маслоу": 4344,
      "масштаб": 4345,
      "совместно": 4346,
      "продажу": 4347,
      "предварительным": 4348,
      "герм": 4349,
      "сирии": 4350,
      "север": 4351,
      "сибири": 4352,
      "оборота": 4353,
      "допуск": 4354,
      "машину": 4355,
      "авторы": 4356,
      "мессендж": 4357,
      "населенных": 4358,
      "подтвердил": 4359,
      "нефтя": 4360,
      "обвиняемых": 4361,
      "хоккей": 4362,
      "степ": 4363,
      "вызывает": 4364,
      "экстрем": 4365,
      "гендиректор": 4366,
      "актри": 4367,
      "шарыпов": 4368,
      "настоящее": 4369,
      "##кистана": 4370,
      "обстоятельства": 4371,
      "реестр": 4372,
      "достаточно": 4373,
      "справедлив": 4374,
      "возглавля": 4375,
      "одобр": 4376,
      "платформы": 4377,
      "апреле": 4378,
      "элемент": 4379,
      "ситилинк": 4380,
      "губернатор": 4381,
      "иноаг": 4382,
      "книги": 4383,
      "садыгов": 4384,
      "##тенант": 4385,
      "зарплаты": 4386,
      "наиболее": 4387,
      "розыск": 4388,
      "приводит": 4389,
      "усилий": 4390,
      "января": 4391,
      "криптокошелек": 4392,
      "бюджет": 4393,
      "великобрит": 4394,
      "зарубежных": 4395,
      "злоумышленники": 4396,
      "альтернатив": 4397,
      "бумаги": 4398,
      "нелег": 4399,
      "тыся": 4400,
      "цикл": 4401,
      "##ограф": 4402,
      "двумя": 4403,
      "туроператоров": 4404,
      "склада": 4405,
      "военнослужащих": 4406,
      "непосред": 4407,
      "балаш": 4408,
      "вейпов": 4409,
      "лейтенант": 4410,
      "менее": 4411,
      "рютте": 4412,
      "сразу": 4413,
      "соревнов": 4414,
      "вымогатель": 4415,
      "контакт": 4416,
      "инновацион": 4417,
      "институт": 4418,
      "изначально": 4419,
      "оптимиз": 4420,
      "запорожской": 4421,
      "пасенко": 4422,
      "расчленили": 4423,
      "генпроку": 4424,
      "середине": 4425,
      "петропавлов": 4426,
      "лукашенко": 4427,
      "аш": 4428,
      "аф": 4429,
      "атом": 4430,
      "вт": 4431,
      "вов": 4432,
      "веч": 4433,
      "ввод": 4434,
      "вину": 4435,
      "гера": 4436,
      "где": 4437,
      "ден": 4438,
      "дар": 4439,
      "дже": 4440,
      "дум": 4441,
      "дене": 4442,
      "его": 4443,
      "жил": 4444,
      "жиль": 4445,
      "знания": 4446,
      "ищ": 4447,
      "кого": 4448,
      "канд": 4449,
      "коп": 4450,
      "корот": 4451,
      "лож": 4452,
      "линк": 4453,
      "лнр": 4454,
      "му": 4455,
      "мера": 4456,
      "мере": 4457,
      "мура": 4458,
      "нер": 4459,
      "оз": 4460,
      "ощ": 4461,
      "пти": 4462,
      "пилот": 4463,
      "роль": 4464,
      "сх": 4465,
      "сом": 4466,
      "сли": 4467,
      "сере": 4468,
      "сесси": 4469,
      "тщ": 4470,
      "тен": 4471,
      "тру": 4472,
      "той": 4473,
      "тек": 4474,
      "твер": 4475,
      "ух": 4476,
      "ули": 4477,
      "уход": 4478,
      "удерж": 4479,
      "уступ": 4480,
      "устро": 4481,
      "улет": 4482,
      "фу": 4483,
      "фот": 4484,
      "хай": 4485,
      "цена": 4486,
      "чат": 4487,
      "чест": 4488,
      "шан": 4489,
      "этом": 4490,
      "юго": 4491,
      "яв": 4492,
      "##аю": 4493,
      "##бер": 4494,
      "##бит": 4495,
      "##лон": 4496,
      "##ланд": 4497,
      "##зь": 4498,
      "##зиров": 4499,
      "##змом": 4500,
      "##зрач": 4501,
      "##цей": 4502,
      "##цем": 4503,
      "##нской": 4504,
      "##уш": 4505,
      "##уру": 4506,
      "##уков": 4507,
      "##сий": 4508,
      "##сиру": 4509,
      "##кро": 4510,
      "##ден": 4511,
      "##дали": 4512,
      "##дже": 4513,
      "##дян": 4514,
      "##чис": 4515,
      "##чную": 4516,
      "##пы": 4517,
      "##поз": 4518,
      "##парт": 4519,
      "##ваться": 4520,
      "##щему": 4521,
      "##гот": 4522,
      "##яну": 4523,
      "##ье": 4524,
      "##жении": 4525,
      "##ждая": 4526,
      "##шов": 4527,
      "##шем": 4528,
      "##шает": 4529,
      "##фл": 4530,
      "##фед": 4531,
      "##филь": 4532,
      "##финге": 4533,
      "##ъект": 4534,
      "##эн": 4535,
      "##енов": 4536,
      "##стрел": 4537,
      "##овест": 4538,
      "##оволь": 4539,
      "##рали": 4540,
      "##ноли": 4541,
      "##нориров": 4542,
      "##нис": 4543,
      "##ниров": 4544,
      "##алз": 4545,
      "##итив": 4546,
      "полов": 4547,
      "поруч": 4548,
      "поможет": 4549,
      "##аторов": 4550,
      "##омб": 4551,
      "##омот": 4552,
      "##илет": 4553,
      "##олаг": 4554,
      "##оточ": 4555,
      "##риц": 4556,
      "##рию": 4557,
      "##рина": 4558,
      "застав": 4559,
      "зачи": 4560,
      "##онт": 4561,
      "##оненты": 4562,
      "рад": 4563,
      "##инто": 4564,
      "##инвест": 4565,
      "##руется": 4566,
      "##рукту": 4567,
      "сос": 4568,
      "##ейне": 4569,
      "##еди": 4570,
      "прозрач": 4571,
      "най": 4572,
      "насколь": 4573,
      "наде": 4574,
      "нашли": 4575,
      "##лам": 4576,
      "##обили": 4577,
      "##ображ": 4578,
      "превы": 4579,
      "сторон": 4580,
      "структу": 4581,
      "образов": 4582,
      "##листиче": 4583,
      "##дах": 4584,
      "##дающий": 4585,
      "##дапе": 4586,
      "отриц": 4587,
      "вок": 4588,
      "репара": 4589,
      "выяв": 4590,
      "выпу": 4591,
      "выраж": 4592,
      "выстрел": 4593,
      "привы": 4594,
      "привести": 4595,
      "присо": 4596,
      "придержив": 4597,
      "приоритет": 4598,
      "##ческой": 4599,
      "##ческий": 4600,
      "##спорт": 4601,
      "перс": 4602,
      "перей": 4603,
      "##тора": 4604,
      "##авший": 4605,
      "##авшего": 4606,
      "кому": 4607,
      "##луат": 4608,
      "##алистиче": 4609,
      "нести": 4610,
      "неуд": 4611,
      "неправ": 4612,
      "невер": 4613,
      "невы": 4614,
      "непри": 4615,
      "нехват": 4616,
      "годов": 4617,
      "подвод": 4618,
      "##ждении": 4619,
      "предсто": 4620,
      "предпол": 4621,
      "предприятия": 4622,
      "разыск": 4623,
      "свед": 4624,
      "контек": 4625,
      "инжен": 4626,
      "сообщал": 4627,
      "##ратить": 4628,
      "##ходов": 4629,
      "##ляющий": 4630,
      "##лялись": 4631,
      "##ительных": 4632,
      "##ительным": 4633,
      "досто": 4634,
      "доступа": 4635,
      "##чаются": 4636,
      "моз": 4637,
      "монит": 4638,
      "могли": 4639,
      "новый": 4640,
      "##аниях": 4641,
      "##ывали": 4642,
      "которым": 4643,
      "мире": 4644,
      "##говый": 4645,
      "каким": 4646,
      "кариб": 4647,
      "##езда": 4648,
      "##ерах": 4649,
      "заявлял": 4650,
      "##екс": 4651,
      "##екрет": 4652,
      "##екина": 4653,
      "##ственные": 4654,
      "##ственное": 4655,
      "опис": 4656,
      "оплачив": 4657,
      "##ленными": 4658,
      "##ечат": 4659,
      "##ечения": 4660,
      "военного": 4661,
      "##дир": 4662,
      "госкор": 4663,
      "##верс": 4664,
      "##верг": 4665,
      "виза": 4666,
      "визита": 4667,
      "осудили": 4668,
      "работать": 4669,
      "лишение": 4670,
      "##комнат": 4671,
      "евг": 4672,
      "одном": 4673,
      "странам": 4674,
      "провин": 4675,
      "##нял": 4676,
      "##няется": 4677,
      "президенту": 4678,
      "##ироваться": 4679,
      "##реть": 4680,
      "##ействие": 4681,
      "деле": 4682,
      "получат": 4683,
      "получает": 4684,
      "правиль": 4685,
      "россиянина": 4686,
      "часов": 4687,
      "механи": 4688,
      "##менте": 4689,
      "деко": 4690,
      "##очные": 4691,
      "грамот": 4692,
      "##ологиче": 4693,
      "совбез": 4694,
      "ваноли": 4695,
      "должно": 4696,
      "повыш": 4697,
      "первую": 4698,
      "первым": 4699,
      "##ционной": 4700,
      "##озмож": 4701,
      "топ": 4702,
      "анна": 4703,
      "владель": 4704,
      "судну": 4705,
      "украину": 4706,
      "местах": 4707,
      "произвед": 4708,
      "развед": 4709,
      "##агав": 4710,
      "##онец": 4711,
      "расчет": 4712,
      "выдаче": 4713,
      "выдавать": 4714,
      "##строф": 4715,
      "челове": 4716,
      "окру": 4717,
      "дистан": 4718,
      "говоря": 4719,
      "говорили": 4720,
      "основатель": 4721,
      "каналы": 4722,
      "##ателям": 4723,
      "обладает": 4724,
      "результаты": 4725,
      "результатов": 4726,
      "результатом": 4727,
      "результатами": 4728,
      "матчи": 4729,
      "увол": 4730,
      "управлении": 4731,
      "противника": 4732,
      "противодейств": 4733,
      "искать": 4734,
      "##шими": 4735,
      "##ностями": 4736,
      "колап": 4737,
      "рубеж": 4738,
      "базов": 4739,
      "добиться": 4740,
      "##ителям": 4741,
      "белого": 4742,
      "##ницу": 4743,
      "##мулят": 4744,
      "последним": 4745,
      "двусторон": 4746,
      "видят": 4747,
      "доме": 4748,
      "многоразов": 4749,
      "числа": 4750,
      "числен": 4751,
      "безопасность": 4752,
      "минфин": 4753,
      "минюст": 4754,
      "ответил": 4755,
      "бизнесе": 4756,
      "упом": 4757,
      "экспер": 4758,
      "экспорт": 4759,
      "эксплуат": 4760,
      "игре": 4761,
      "станов": 4762,
      "регистра": 4763,
      "регионах": 4764,
      "регионом": 4765,
      "запрете": 4766,
      "соответственно": 4767,
      "целей": 4768,
      "целях": 4769,
      "целям": 4770,
      "располаг": 4771,
      "атриб": 4772,
      "вещ": 4773,
      "вега": 4774,
      "позитив": 4775,
      "вертик": 4776,
      "использования": 4777,
      "водителя": 4778,
      "документа": 4779,
      "акций": 4780,
      "потребуется": 4781,
      "детал": 4782,
      "кир": 4783,
      "томагав": 4784,
      "##ременно": 4785,
      "общаться": 4786,
      "решениях": 4787,
      "мотивацию": 4788,
      "систему": 4789,
      "создал": 4790,
      "созданию": 4791,
      "человеком": 4792,
      "контроле": 4793,
      "санкция": 4794,
      "втором": 4795,
      "подготовке": 4796,
      "внутри": 4797,
      "исключением": 4798,
      "риск": 4799,
      "являются": 4800,
      "замороз": 4801,
      "состоялся": 4802,
      "откры": 4803,
      "периода": 4804,
      "заключили": 4805,
      "установки": 4806,
      "##анос": 4807,
      "большая": 4808,
      "супруги": 4809,
      "супруга": 4810,
      "имени": 4811,
      "корпо": 4812,
      "факту": 4813,
      "электри": 4814,
      "электром": 4815,
      "##ающий": 4816,
      "##ающие": 4817,
      "генерал": 4818,
      "европейской": 4819,
      "европейских": 4820,
      "европейского": 4821,
      "будапе": 4822,
      "оказывать": 4823,
      "хотели": 4824,
      "статьям": 4825,
      "стратегии": 4826,
      "испытаний": 4827,
      "политики": 4828,
      "политических": 4829,
      "главное": 4830,
      "специалист": 4831,
      "сексу": 4832,
      "##симов": 4833,
      "##надз": 4834,
      "выполнить": 4835,
      "запрещенных": 4836,
      "гола": 4837,
      "голки": 4838,
      "значительно": 4839,
      "сезона": 4840,
      "ударов": 4841,
      "фонд": 4842,
      "штате": 4843,
      "проходит": 4844,
      "изменений": 4845,
      "проведения": 4846,
      "проведение": 4847,
      "проведите": 4848,
      "любом": 4849,
      "любые": 4850,
      "интересы": 4851,
      "внутренний": 4852,
      "войск": 4853,
      "войну": 4854,
      "влияет": 4855,
      "ядерной": 4856,
      "##ехал": 4857,
      "инфляции": 4858,
      "вашингтоне": 4859,
      "апел": 4860,
      "шагала": 4861,
      "ведомстве": 4862,
      "победы": 4863,
      "процессе": 4864,
      "дополнительным": 4865,
      "мошенники": 4866,
      "четырех": 4867,
      "турнира": 4868,
      "быст": 4869,
      "было": 4870,
      "пятницу": 4871,
      "рейт": 4872,
      "снижение": 4873,
      "полиция": 4874,
      "полицей": 4875,
      "отдельных": 4876,
      "ресурсы": 4877,
      "выступает": 4878,
      "особо": 4879,
      "будущих": 4880,
      "совершить": 4881,
      "экономических": 4882,
      "земле": 4883,
      "земля": 4884,
      "ниже": 4885,
      "осужден": 4886,
      "##сион": 4887,
      "защиту": 4888,
      "обратился": 4889,
      "авианос": 4890,
      "планов": 4891,
      "психологи": 4892,
      "достигнут": 4893,
      "боевые": 4894,
      "содержа": 4895,
      "зумеров": 4896,
      "дроб": 4897,
      "понрав": 4898,
      "возраста": 4899,
      "воздушного": 4900,
      "банка": 4901,
      "метал": 4902,
      "нигер": 4903,
      "нигере": 4904,
      "симон": 4905,
      "шахмат": 4906,
      "##перев": 4907,
      "напом": 4908,
      "напомин": 4909,
      "мирногра": 4910,
      "потенциал": 4911,
      "агентство": 4912,
      "инициативе": 4913,
      "далекина": 4914,
      "малкин": 4915,
      "##ирается": 4916,
      "принял": 4917,
      "самолетов": 4918,
      "максимальное": 4919,
      "баллистиче": 4920,
      "довод": 4921,
      "имена": 4922,
      "ожо": 4923,
      "оружие": 4924,
      "сфере": 4925,
      "сформиров": 4926,
      "успех": 4927,
      "ценность": 4928,
      "своего": 4929,
      "рассматривать": 4930,
      "энергонос": 4931,
      "ближнего": 4932,
      "аэропорта": 4933,
      "категорий": 4934,
      "подразделений": 4935,
      "впослед": 4936,
      "миллени": 4937,
      "модель": 4938,
      "##елось": 4939,
      "столичного": 4940,
      "границу": 4941,
      "участие": 4942,
      "криптоинвест": 4943,
      "пользоваться": 4944,
      "пользователей": 4945,
      "норвегия": 4946,
      "вступления": 4947,
      "литвы": 4948,
      "писал": 4949,
      "нарушения": 4950,
      "отличие": 4951,
      "перечис": 4952,
      "##ющихся": 4953,
      "усиленные": 4954,
      "рынка": 4955,
      "фонтанки": 4956,
      "ввел": 4957,
      "мобилизационный": 4958,
      "травм": 4959,
      "##виж": 4960,
      "положения": 4961,
      "награду": 4962,
      "обучения": 4963,
      "странах": 4964,
      "авторитет": 4965,
      "венгерской": 4966,
      "прокуратуры": 4967,
      "центральной": 4968,
      "никол": 4969,
      "удал": 4970,
      "##питалз": 4971,
      "растет": 4972,
      "можете": 4973,
      "десять": 4974,
      "октябрьский": 4975,
      "убежд": 4976,
      "органов": 4977,
      "рассмотрения": 4978,
      "недостат": 4979,
      "газета": 4980,
      "подозреваемых": 4981,
      "попытки": 4982,
      "брифинге": 4983,
      "думаю": 4984,
      "лаврова": 4985,
      "мероприят": 4986,
      "пенсион": 4987,
      "устройства": 4988,
      "сторону": 4989,
      "миграции": 4990,
      "зависимости": 4991,
      "консульства": 4992,
      "психологической": 4993,
      "обнаружили": 4994,
      "футболь": 4995,
      "феврале": 4996,
      "февраля": 4997,
      "атаки": 4998,
      "атаков": 4999
    }
  }
}